/* Generated by Edge Impulse
 *
 * Permission is hereby granted, free of charge, to any person obtaining a copy
 * of this software and associated documentation files (the "Software"), to deal
 * in the Software without restriction, including without limitation the rights
 * to use, copy, modify, merge, publish, distribute, sublicense, and/or sell
 * copies of the Software, and to permit persons to whom the Software is
 * furnished to do so, subject to the following conditions:
 *
 * The above copyright notice and this permission notice shall be included in
 * all copies or substantial portions of the Software.
 *
 * THE SOFTWARE IS PROVIDED "AS IS", WITHOUT WARRANTY OF ANY KIND, EXPRESS OR
 * IMPLIED, INCLUDING BUT NOT LIMITED TO THE WARRANTIES OF MERCHANTABILITY,
 * FITNESS FOR A PARTICULAR PURPOSE AND NONINFRINGEMENT. IN NO EVENT SHALL THE
 * AUTHORS OR COPYRIGHT HOLDERS BE LIABLE FOR ANY CLAIM, DAMAGES OR OTHER
 * LIABILITY, WHETHER IN AN ACTION OF CONTRACT, TORT OR OTHERWISE, ARISING FROM,
 * OUT OF OR IN CONNECTION WITH THE SOFTWARE OR THE USE OR OTHER DEALINGS IN THE
 * SOFTWARE.
 */

#ifndef _EI_CLASSIFIER_TFLITE_LEARN_5_H_
#define _EI_CLASSIFIER_TFLITE_LEARN_5_H_

#define EI_CLASSIFIER_TFLITE_LEARN_5_ARENA_SIZE     11891
const size_t tflite_learn_5_arena_size = 11891;

#ifdef EI_CLASSIFIER_TFLITE_ARENA_SIZE
#if EI_CLASSIFIER_TFLITE_ARENA_SIZE < EI_CLASSIFIER_TFLITE_LEARN_5_ARENA_SIZE
#undef EI_CLASSIFIER_TFLITE_ARENA_SIZE
#define EI_CLASSIFIER_TFLITE_ARENA_SIZE EI_CLASSIFIER_TFLITE_LEARN_5_ARENA_SIZE
#endif // #if EI_CLASSIFIER_TFLITE_ARENA_SIZE < EI_CLASSIFIER_TFLITE_LEARN_5_ARENA_SIZE
#else
#define EI_CLASSIFIER_TFLITE_ARENA_SIZE EI_CLASSIFIER_TFLITE_LEARN_5_ARENA_SIZE
#endif // #ifdef EI_CLASSIFIER_TFLITE_ARENA_SIZE

#if defined __GNUC__
#define ALIGN(X) __attribute__((aligned(X)))
#elif defined _MSC_VER
#define ALIGN(X) __declspec(align(X))
#elif defined __TASKING__
#define ALIGN(X) __align(X)
#else
#define ALIGN(X)
#endif

ALIGN(16) const unsigned char tflite_learn_5[] = {
  0x1c, 0x00, 0x00, 0x00, 0x54, 0x46, 0x4c, 0x33, 0x14, 0x00, 0x20, 0x00,
  0x1c, 0x00, 0x18, 0x00, 0x14, 0x00, 0x10, 0x00, 0x0c, 0x00, 0x00, 0x00,
  0x08, 0x00, 0x04, 0x00, 0x14, 0x00, 0x00, 0x00, 0x1c, 0x00, 0x00, 0x00,
  0x8c, 0x00, 0x00, 0x00, 0xe4, 0x00, 0x00, 0x00, 0x48, 0x11, 0x00, 0x00,
  0x58, 0x11, 0x00, 0x00, 0x10, 0x1e, 0x00, 0x00, 0x03, 0x00, 0x00, 0x00,
  0x01, 0x00, 0x00, 0x00, 0x10, 0x00, 0x00, 0x00, 0x00, 0x00, 0x0a, 0x00,
  0x10, 0x00, 0x0c, 0x00, 0x08, 0x00, 0x04, 0x00, 0x0a, 0x00, 0x00, 0x00,
  0x0c, 0x00, 0x00, 0x00, 0x1c, 0x00, 0x00, 0x00, 0x3c, 0x00, 0x00, 0x00,
  0x0f, 0x00, 0x00, 0x00, 0x73, 0x65, 0x72, 0x76, 0x69, 0x6e, 0x67, 0x5f,
  0x64, 0x65, 0x66, 0x61, 0x75, 0x6c, 0x74, 0x00, 0x01, 0x00, 0x00, 0x00,
  0x04, 0x00, 0x00, 0x00, 0x9c, 0xff, 0xff, 0xff, 0x10, 0x00, 0x00, 0x00,
  0x04, 0x00, 0x00, 0x00, 0x08, 0x00, 0x00, 0x00, 0x6f, 0x75, 0x74, 0x70,
  0x75, 0x74, 0x5f, 0x30, 0x00, 0x00, 0x00, 0x00, 0x01, 0x00, 0x00, 0x00,
  0x04, 0x00, 0x00, 0x00, 0x9e, 0xee, 0xff, 0xff, 0x04, 0x00, 0x00, 0x00,
  0x01, 0x00, 0x00, 0x00, 0x78, 0x00, 0x00, 0x00, 0x02, 0x00, 0x00, 0x00,
  0x34, 0x00, 0x00, 0x00, 0x04, 0x00, 0x00, 0x00, 0xdc, 0xff, 0xff, 0xff,
  0x13, 0x00, 0x00, 0x00, 0x04, 0x00, 0x00, 0x00, 0x13, 0x00, 0x00, 0x00,
  0x43, 0x4f, 0x4e, 0x56, 0x45, 0x52, 0x53, 0x49, 0x4f, 0x4e, 0x5f, 0x4d,
  0x45, 0x54, 0x41, 0x44, 0x41, 0x54, 0x41, 0x00, 0x08, 0x00, 0x0c, 0x00,
  0x08, 0x00, 0x04, 0x00, 0x08, 0x00, 0x00, 0x00, 0x12, 0x00, 0x00, 0x00,
  0x04, 0x00, 0x00, 0x00, 0x13, 0x00, 0x00, 0x00, 0x6d, 0x69, 0x6e, 0x5f,
  0x72, 0x75, 0x6e, 0x74, 0x69, 0x6d, 0x65, 0x5f, 0x76, 0x65, 0x72, 0x73,
  0x69, 0x6f, 0x6e, 0x00, 0x14, 0x00, 0x00, 0x00, 0x60, 0x10, 0x00, 0x00,
  0x58, 0x10, 0x00, 0x00, 0x38, 0x10, 0x00, 0x00, 0x20, 0x10, 0x00, 0x00,
  0x04, 0x10, 0x00, 0x00, 0x34, 0x06, 0x00, 0x00, 0xe4, 0x05, 0x00, 0x00,
  0x54, 0x01, 0x00, 0x00, 0x24, 0x01, 0x00, 0x00, 0xcc, 0x00, 0x00, 0x00,
  0xc4, 0x00, 0x00, 0x00, 0xbc, 0x00, 0x00, 0x00, 0xb4, 0x00, 0x00, 0x00,
  0xac, 0x00, 0x00, 0x00, 0xa4, 0x00, 0x00, 0x00, 0x9c, 0x00, 0x00, 0x00,
  0x94, 0x00, 0x00, 0x00, 0x8c, 0x00, 0x00, 0x00, 0x6c, 0x00, 0x00, 0x00,
  0x04, 0x00, 0x00, 0x00, 0x5e, 0xef, 0xff, 0xff, 0x04, 0x00, 0x00, 0x00,
  0x58, 0x00, 0x00, 0x00, 0x0c, 0x00, 0x00, 0x00, 0x08, 0x00, 0x0e, 0x00,
  0x08, 0x00, 0x04, 0x00, 0x08, 0x00, 0x00, 0x00, 0x10, 0x00, 0x00, 0x00,
  0x28, 0x00, 0x00, 0x00, 0x00, 0x00, 0x06, 0x00, 0x08, 0x00, 0x04, 0x00,
  0x06, 0x00, 0x00, 0x00, 0x04, 0x00, 0x00, 0x00, 0x01, 0x00, 0x00, 0x00,
  0xeb, 0x03, 0x00, 0x00, 0x00, 0x00, 0x0a, 0x00, 0x10, 0x00, 0x0c, 0x00,
  0x08, 0x00, 0x04, 0x00, 0x0a, 0x00, 0x00, 0x00, 0x03, 0x00, 0x00, 0x00,
  0x02, 0x00, 0x00, 0x00, 0x04, 0x00, 0x00, 0x00, 0x06, 0x00, 0x00, 0x00,
  0x32, 0x2e, 0x31, 0x31, 0x2e, 0x31, 0x00, 0x00, 0xc2, 0xef, 0xff, 0xff,
  0x04, 0x00, 0x00, 0x00, 0x10, 0x00, 0x00, 0x00, 0x31, 0x2e, 0x31, 0x34,
  0x2e, 0x30, 0x00, 0x00, 0x00, 0x00, 0x00, 0x00, 0x00, 0x00, 0x00, 0x00,
  0x58, 0xe4, 0xff, 0xff, 0x5c, 0xe4, 0xff, 0xff, 0x60, 0xe4, 0xff, 0xff,
  0x64, 0xe4, 0xff, 0xff, 0x68, 0xe4, 0xff, 0xff, 0x6c, 0xe4, 0xff, 0xff,
  0x70, 0xe4, 0xff, 0xff, 0x74, 0xe4, 0xff, 0xff, 0xfe, 0xef, 0xff, 0xff,
  0x04, 0x00, 0x00, 0x00, 0x48, 0x00, 0x00, 0x00, 0x01, 0x83, 0x0f, 0x54,
  0xb6, 0x01, 0x7f, 0x9a, 0x03, 0x30, 0xbc, 0x10, 0x3c, 0xa9, 0x06, 0x8e,
  0x7f, 0xf7, 0x4a, 0x2c, 0xaa, 0x2c, 0x6a, 0xb7, 0xe3, 0x7f, 0xc2, 0xa0,
  0x8d, 0x0b, 0xc1, 0x55, 0xdc, 0x7f, 0x0e, 0xe1, 0x4b, 0xac, 0x5b, 0x1f,
  0xbc, 0x31, 0x42, 0x81, 0x36, 0xcc, 0xbc, 0xe8, 0x7f, 0x40, 0xd1, 0x9f,
  0xaf, 0x08, 0xa5, 0xe7, 0xb3, 0x44, 0x8b, 0x9c, 0x5a, 0x81, 0xc1, 0x7c,
  0x5f, 0xd7, 0x53, 0x54, 0xec, 0x7f, 0x68, 0xfe, 0x52, 0xf0, 0xff, 0xff,
  0x04, 0x00, 0x00, 0x00, 0x20, 0x00, 0x00, 0x00, 0xe5, 0xe5, 0xff, 0xff,
  0x5b, 0xf6, 0xff, 0xff, 0x4f, 0xe7, 0xff, 0xff, 0xa6, 0xf3, 0xff, 0xff,
  0xa6, 0xe7, 0xff, 0xff, 0x88, 0xf3, 0xff, 0xff, 0x13, 0xe0, 0xff, 0xff,
  0xc6, 0xdc, 0xff, 0xff, 0x7e, 0xf0, 0xff, 0xff, 0x04, 0x00, 0x00, 0x00,
  0x80, 0x04, 0x00, 0x00, 0xee, 0xf2, 0x1f, 0xee, 0xb7, 0xd2, 0xd9, 0xff,
  0xc7, 0xe3, 0xd3, 0xfe, 0xb5, 0xd7, 0x09, 0x95, 0xef, 0x0e, 0xf4, 0xf1,
  0xae, 0xb3, 0x01, 0xe5, 0xcf, 0x15, 0x32, 0x28, 0x04, 0xca, 0xd9, 0xa1,
  0xce, 0xcc, 0x01, 0xe8, 0xa5, 0xc1, 0x0a, 0x9b, 0xde, 0xe9, 0xfe, 0xe3,
  0x09, 0xf9, 0xe4, 0xb5, 0x81, 0x24, 0xa4, 0xb9, 0xb8, 0x37, 0x2b, 0xe9,
  0xf9, 0x0a, 0xdc, 0xb9, 0xa2, 0xf2, 0xc0, 0xa7, 0x17, 0xfd, 0xeb, 0xd6,
  0xd9, 0xc5, 0x0b, 0xdc, 0x2b, 0x0d, 0x34, 0xf1, 0x3d, 0x0a, 0x17, 0xed,
  0xc5, 0xe6, 0xc3, 0xf7, 0x0a, 0x0f, 0xfe, 0xb5, 0xba, 0xf0, 0x09, 0xe1,
  0xb9, 0xff, 0xdf, 0xf5, 0x1f, 0x09, 0xfa, 0xf9, 0x0a, 0xe0, 0x1f, 0xfb,
  0x16, 0xfe, 0x18, 0xf5, 0x04, 0xf5, 0x34, 0xe9, 0xd0, 0xef, 0x02, 0xf2,
  0xd7, 0x1c, 0xe6, 0x05, 0xf6, 0x32, 0x7f, 0xe1, 0x40, 0xf0, 0x00, 0xf7,
  0x07, 0x91, 0x02, 0xf9, 0x06, 0xef, 0x0b, 0xe6, 0x9e, 0x00, 0x10, 0xe2,
  0x99, 0xd7, 0xea, 0x1d, 0x0e, 0xf1, 0xe0, 0xc5, 0x35, 0xc3, 0x81, 0x55,
  0x39, 0xf4, 0x44, 0xc2, 0x1c, 0xf5, 0x30, 0x19, 0xfc, 0xd5, 0x05, 0xf0,
  0xdd, 0x1c, 0x59, 0xd2, 0x3c, 0x3a, 0xab, 0xe0, 0xf4, 0xdf, 0x03, 0xcb,
  0x2d, 0xf8, 0xfe, 0xb7, 0x21, 0xe8, 0x0b, 0xdf, 0x08, 0xc2, 0xe2, 0xd3,
  0x05, 0x06, 0x26, 0xaf, 0x41, 0x1d, 0x98, 0xc0, 0x02, 0x09, 0xf6, 0x8e,
  0x18, 0x30, 0x44, 0xa0, 0xf8, 0xe0, 0x25, 0xe3, 0x21, 0xd6, 0x85, 0x1b,
  0xea, 0x0c, 0x1d, 0xeb, 0x11, 0xbd, 0xdd, 0xdd, 0xef, 0xf0, 0xba, 0xcb,
  0xe3, 0xb0, 0xf1, 0xb8, 0xc6, 0x82, 0xb1, 0x0d, 0xf3, 0xfe, 0xfd, 0xef,
  0x26, 0xf6, 0x14, 0x37, 0x06, 0xe1, 0xce, 0xc6, 0x00, 0x13, 0xdf, 0xb0,
  0xaf, 0xba, 0x1c, 0x89, 0xaa, 0xbb, 0xa3, 0x15, 0xfb, 0xfa, 0x02, 0x05,
  0xee, 0x00, 0xff, 0xec, 0xf6, 0xec, 0xc4, 0xe6, 0xcb, 0xaf, 0xe2, 0xdb,
  0x81, 0x94, 0xff, 0x98, 0x9f, 0xb1, 0xc6, 0x30, 0x0f, 0x17, 0x15, 0x0b,
  0x1f, 0x14, 0xf8, 0x22, 0xed, 0x8f, 0xa3, 0xb5, 0xfd, 0xc7, 0xf6, 0xbf,
  0x92, 0x81, 0x0d, 0x85, 0x9b, 0x8f, 0x90, 0x0f, 0xe7, 0x14, 0xd7, 0x06,
  0xf8, 0xe6, 0x0c, 0xe3, 0xf4, 0xb1, 0xd8, 0xeb, 0xe3, 0xcf, 0x07, 0xa8,
  0x93, 0x88, 0x01, 0x88, 0x87, 0xa9, 0x9f, 0x02, 0xf9, 0x0d, 0x0d, 0x1a,
  0x2b, 0xf5, 0xe4, 0x2d, 0xb0, 0xae, 0xcc, 0xf8, 0xcf, 0xd6, 0xd1, 0xb2,
  0x9f, 0xc6, 0x00, 0xc5, 0xc6, 0x86, 0x8f, 0xf2, 0x1a, 0x28, 0xf8, 0xeb,
  0x1a, 0x05, 0xeb, 0x15, 0xde, 0x0c, 0xe4, 0x00, 0xd0, 0x15, 0x12, 0xd3,
  0xc9, 0x09, 0xe4, 0xe0, 0x13, 0x7d, 0xd0, 0xc6, 0xe6, 0x17, 0x9c, 0x45,
  0xe3, 0x41, 0x1b, 0x0d, 0xbb, 0xfc, 0x13, 0xcd, 0xc5, 0x23, 0xe9, 0xd3,
  0xa1, 0x17, 0xa8, 0x08, 0xee, 0x27, 0x16, 0xc4, 0xb3, 0x39, 0xd0, 0x0b,
  0xfb, 0x03, 0x10, 0xc3, 0xf5, 0xe9, 0xd8, 0x32, 0xd5, 0x2d, 0x4c, 0xb6,
  0x81, 0x45, 0xc9, 0x31, 0xac, 0xdf, 0x0a, 0xc4, 0x09, 0x49, 0xa7, 0x00,
  0xec, 0x22, 0xe8, 0xe7, 0xf8, 0xed, 0x2d, 0xfc, 0xed, 0xfd, 0x09, 0x3d,
  0xec, 0x04, 0xf2, 0x04, 0x08, 0x16, 0x0a, 0xd3, 0x37, 0xf5, 0xff, 0xfe,
  0x44, 0xfb, 0x0a, 0xaf, 0xf3, 0xf4, 0x0e, 0xcb, 0xa9, 0xf0, 0x0c, 0x17,
  0x1a, 0xe2, 0xba, 0xf8, 0x13, 0xf5, 0x1c, 0xa9, 0x3f, 0xf3, 0x1d, 0xed,
  0x16, 0x06, 0x11, 0xb3, 0xbf, 0xd4, 0x1b, 0xc8, 0x81, 0xdb, 0xd7, 0x34,
  0x27, 0xf9, 0xfc, 0x05, 0x12, 0x05, 0x2b, 0x02, 0x08, 0x06, 0x00, 0xc1,
  0x09, 0xf1, 0x0c, 0xd7, 0xf6, 0x01, 0xc9, 0x01, 0xce, 0x41, 0xf5, 0xa7,
  0x10, 0xd7, 0xd4, 0x08, 0xf7, 0x22, 0x1f, 0xa6, 0xc6, 0xf0, 0x0f, 0x0a,
  0xc7, 0x09, 0x28, 0xe4, 0xb9, 0x09, 0xcd, 0x07, 0xc4, 0xf8, 0xc8, 0xcb,
  0x2e, 0xe3, 0x0d, 0x05, 0xe6, 0x07, 0x36, 0xd6, 0xc3, 0x13, 0x1a, 0x12,
  0xd9, 0x10, 0xfa, 0x02, 0xa1, 0x18, 0xb2, 0x05, 0xa5, 0xe6, 0xd0, 0xc6,
  0x07, 0xf6, 0xf2, 0xff, 0xe9, 0x26, 0xf1, 0xaf, 0x81, 0x06, 0x25, 0x10,
  0xd9, 0x15, 0x01, 0xfa, 0x01, 0xee, 0x35, 0x98, 0x26, 0xdb, 0xe1, 0x39,
  0xf8, 0x01, 0x16, 0x0e, 0x01, 0xe7, 0x07, 0x12, 0x06, 0xb6, 0xe8, 0xdf,
  0x24, 0xf6, 0x2f, 0x96, 0x01, 0x2b, 0xd4, 0xb5, 0xef, 0xd0, 0x10, 0xf8,
  0xf2, 0x3a, 0xfc, 0x30, 0xef, 0xc8, 0x03, 0x0f, 0x15, 0xf1, 0xd4, 0xf4,
  0x14, 0xfc, 0x30, 0xaa, 0x44, 0x2f, 0xa8, 0x02, 0x1b, 0x05, 0x1d, 0xa4,
  0xc7, 0xbd, 0x6c, 0x0a, 0xdd, 0xae, 0x2c, 0x12, 0x34, 0xd8, 0xe0, 0xf9,
  0x31, 0x10, 0x4d, 0x81, 0xc9, 0xf1, 0xb2, 0x00, 0xb4, 0x41, 0x07, 0x0f,
  0xda, 0x00, 0xeb, 0x04, 0xd6, 0x2c, 0xee, 0x19, 0x09, 0xf8, 0xdf, 0x03,
  0xfd, 0x05, 0x35, 0xf0, 0xa3, 0x02, 0xb0, 0x3f, 0xa1, 0x0c, 0xf7, 0x16,
  0x9c, 0xd8, 0xff, 0xf9, 0x8a, 0x14, 0xef, 0xea, 0x03, 0xf6, 0xe8, 0x03,
  0xfd, 0x14, 0x26, 0xee, 0x81, 0x04, 0x9f, 0x06, 0x98, 0x05, 0xbd, 0xef,
  0xd7, 0x01, 0xfd, 0x05, 0xcc, 0xed, 0xcc, 0x6e, 0xf6, 0xf7, 0xdf, 0xfe,
  0xeb, 0x1d, 0x13, 0xf5, 0x02, 0xea, 0xbc, 0x30, 0xdf, 0x04, 0x32, 0xc9,
  0xa1, 0xb3, 0x02, 0xd6, 0xc5, 0x81, 0xdc, 0xea, 0xdc, 0x15, 0xa3, 0xe5,
  0xeb, 0xeb, 0xfc, 0x06, 0x06, 0xd2, 0xd3, 0x25, 0xf0, 0x2e, 0x21, 0x0d,
  0xb7, 0xdb, 0x02, 0xd5, 0x99, 0xb7, 0x01, 0xf8, 0x1e, 0x08, 0xe9, 0x16,
  0xff, 0xe4, 0xef, 0x11, 0xf6, 0xd2, 0xe0, 0xf5, 0xd7, 0xfa, 0x22, 0xe9,
  0x90, 0xfb, 0xfc, 0xe7, 0xcc, 0xd6, 0xb0, 0x08, 0x1b, 0x20, 0xf9, 0x05,
  0x2b, 0xe9, 0x0a, 0x1a, 0xb5, 0x0c, 0xba, 0x3a, 0xf9, 0x27, 0xdb, 0xeb,
  0x02, 0xa8, 0xe6, 0xb9, 0xfd, 0x81, 0xf6, 0x12, 0xa9, 0xd1, 0xaa, 0xd7,
  0xc8, 0x9e, 0xda, 0xbd, 0xf4, 0x23, 0xd9, 0xaa, 0x07, 0x82, 0xfc, 0xa3,
  0x02, 0xa2, 0xeb, 0xde, 0x9d, 0xb2, 0xd5, 0xad, 0xd6, 0xd1, 0xe4, 0xef,
  0xcc, 0xdd, 0x15, 0xb8, 0xb6, 0xa8, 0x01, 0x06, 0xe2, 0xd7, 0xc1, 0xe1,
  0xf4, 0x47, 0x01, 0xf0, 0xdb, 0xdf, 0xb1, 0xe8, 0xc2, 0xad, 0xe8, 0x0c,
  0xc0, 0xfc, 0x1d, 0xcd, 0xe5, 0xe8, 0x1f, 0xd4, 0x11, 0xbc, 0xb2, 0x1b,
  0x1c, 0xa1, 0xf2, 0xd6, 0x0e, 0xc7, 0x89, 0x1f, 0x31, 0x16, 0x34, 0x18,
  0x03, 0x18, 0x07, 0xe8, 0xc1, 0xac, 0x02, 0xbf, 0xc0, 0xcf, 0xa1, 0xf9,
  0xfd, 0xa2, 0xf7, 0xa6, 0x0b, 0xc8, 0x98, 0xf1, 0xf2, 0x1c, 0x0f, 0x0d,
  0x0e, 0x14, 0x23, 0x11, 0x81, 0xd7, 0x3d, 0xd4, 0x84, 0xaf, 0xc0, 0x09,
  0xf8, 0xa3, 0xdd, 0xc8, 0x02, 0x89, 0x12, 0x14, 0x3f, 0x0e, 0x40, 0xdb,
  0xec, 0x00, 0x0a, 0x15, 0xe6, 0x93, 0xc8, 0x87, 0x11, 0x96, 0x94, 0xac,
  0xc0, 0x8a, 0x99, 0x89, 0xd4, 0x94, 0xa7, 0xd1, 0xbd, 0xd6, 0xfe, 0xe8,
  0xe8, 0xdd, 0xba, 0xdf, 0xe9, 0xea, 0xba, 0x81, 0x24, 0x9e, 0xca, 0xb9,
  0xe2, 0xa5, 0x8e, 0xa0, 0xf1, 0xb9, 0xe8, 0xd1, 0x9e, 0xc5, 0xdb, 0xb6,
  0xe7, 0xe6, 0xf4, 0xf5, 0x03, 0xd1, 0xa7, 0xe0, 0x23, 0x8d, 0xc1, 0xa1,
  0xbe, 0xac, 0x9e, 0xb3, 0xd1, 0xa3, 0xd2, 0x95, 0xa4, 0xfe, 0xf1, 0x10,
  0xbf, 0xd3, 0xc7, 0xf6, 0xb5, 0xbb, 0xb6, 0xb4, 0x8b, 0x05, 0xa8, 0xc1,
  0x13, 0x2a, 0x09, 0x18, 0x0e, 0xfe, 0x06, 0xd1, 0x12, 0x0d, 0x0a, 0x01,
  0xfc, 0x17, 0x06, 0x06, 0xd0, 0xc1, 0xb7, 0xaf, 0xb4, 0x0c, 0xe0, 0x81,
  0xf2, 0x1b, 0xca, 0x07, 0xfe, 0x14, 0x14, 0xcc, 0xbf, 0x07, 0xed, 0xf2,
  0xda, 0xf5, 0xe3, 0x00, 0x94, 0xc4, 0xa8, 0xe3, 0xaa, 0xf6, 0x82, 0x86,
  0x0f, 0x20, 0x06, 0x40, 0xf3, 0xef, 0x28, 0xb3, 0x1f, 0x04, 0xfd, 0xea,
  0x06, 0x1a, 0x04, 0xfd, 0x2d, 0xd9, 0xf8, 0xac, 0x11, 0xe0, 0xb9, 0x41,
  0xc2, 0xaa, 0x19, 0xcf, 0xa3, 0x88, 0xce, 0x13, 0xf8, 0x02, 0xec, 0xeb,
  0xf5, 0xdc, 0x08, 0xfe, 0xf5, 0xb9, 0x1b, 0x81, 0xf5, 0xed, 0xb7, 0x21,
  0x9c, 0x84, 0x26, 0xba, 0x86, 0xad, 0xd0, 0x00, 0x17, 0x02, 0xf8, 0xe3,
  0x3a, 0xc9, 0xf6, 0xf2, 0xc7, 0x94, 0x10, 0xac, 0xdd, 0xc7, 0xb6, 0x39,
  0xa4, 0x91, 0x06, 0x9d, 0x9d, 0x92, 0xaf, 0x17, 0x1d, 0x1d, 0x1f, 0xf8,
  0xd1, 0xe1, 0x1c, 0x13, 0x0a, 0xf5, 0xff, 0xff, 0x04, 0x00, 0x00, 0x00,
  0x40, 0x00, 0x00, 0x00, 0x32, 0xe1, 0xff, 0xff, 0xec, 0xe6, 0xff, 0xff,
  0xad, 0xc3, 0xff, 0xff, 0xb4, 0x03, 0x00, 0x00, 0xb0, 0x10, 0x00, 0x00,
  0xca, 0xeb, 0xff, 0xff, 0xd5, 0xd9, 0xff, 0xff, 0x0b, 0xf9, 0xff, 0xff,
  0xe7, 0xc9, 0xff, 0xff, 0x61, 0xe5, 0xff, 0xff, 0xc8, 0xf6, 0xff, 0xff,
  0xf2, 0xec, 0xff, 0xff, 0xfe, 0xf5, 0xff, 0xff, 0x31, 0x2e, 0x00, 0x00,
  0x34, 0xf6, 0xff, 0xff, 0x95, 0xfd, 0xff, 0xff, 0x56, 0xf5, 0xff, 0xff,
  0x04, 0x00, 0x00, 0x00, 0xc0, 0x09, 0x00, 0x00, 0x05, 0xb4, 0xdc, 0xf6,
  0xf7, 0x22, 0xec, 0x38, 0x13, 0xf7, 0x2f, 0xee, 0xf5, 0x01, 0x0e, 0xfd,
  0xf8, 0x04, 0x0b, 0x02, 0xe3, 0xec, 0xfc, 0xd5, 0x13, 0x26, 0xfa, 0xf9,
  0x0b, 0x17, 0xed, 0xf8, 0xfc, 0x10, 0xd9, 0xe5, 0x02, 0xed, 0x28, 0xdf,
  0xb6, 0xac, 0xdf, 0x03, 0x11, 0x06, 0xe1, 0xed, 0xf9, 0x0b, 0xd0, 0xac,
  0x0b, 0x0a, 0xfe, 0x24, 0x01, 0x01, 0xd0, 0xea, 0x1a, 0xfe, 0x12, 0x25,
  0x00, 0xaf, 0xcb, 0x00, 0x0b, 0xeb, 0xf4, 0x1f, 0x03, 0xfe, 0x21, 0x0d,
  0x2a, 0xfa, 0xff, 0x07, 0xf9, 0x04, 0x36, 0xe3, 0x0d, 0xcc, 0x12, 0xd2,
  0x1a, 0xfa, 0x09, 0xf0, 0x19, 0xd7, 0xdf, 0x09, 0xf9, 0x0a, 0xe8, 0xe0,
  0xb2, 0xf2, 0x44, 0xef, 0xf8, 0xe3, 0xfb, 0x0d, 0x35, 0xa7, 0x0d, 0x32,
  0x07, 0x3d, 0xe1, 0x41, 0xd1, 0xfa, 0xd6, 0xf8, 0x0e, 0xff, 0xdd, 0x0a,
  0x18, 0xf6, 0x22, 0x3c, 0x04, 0x9f, 0xb6, 0x10, 0x11, 0xdf, 0x0e, 0x21,
  0xe7, 0xde, 0x16, 0xea, 0x17, 0xd0, 0xf4, 0x1a, 0xf8, 0xf9, 0x25, 0x12,
  0x2c, 0xb3, 0xfe, 0xca, 0x0a, 0x03, 0x05, 0xfa, 0x1c, 0xd8, 0xd1, 0xea,
  0x0a, 0x15, 0x10, 0x01, 0xc3, 0xde, 0x4c, 0xf5, 0x1b, 0xe7, 0xf3, 0x0e,
  0x27, 0xcf, 0x02, 0x1a, 0x07, 0x15, 0x1e, 0x19, 0x00, 0xe4, 0xf0, 0xfd,
  0x32, 0xeb, 0xe1, 0x0c, 0x47, 0xfa, 0x04, 0x50, 0x06, 0xa8, 0xb8, 0x0c,
  0x2d, 0x00, 0xfd, 0x45, 0xe0, 0xd2, 0x27, 0xe3, 0x0c, 0xcb, 0xe4, 0x19,
  0xf9, 0xfd, 0x15, 0x0f, 0x00, 0xdf, 0xf6, 0x19, 0x1d, 0x0b, 0xde, 0x0a,
  0x1c, 0x0d, 0x0c, 0x0b, 0xf3, 0xfe, 0x06, 0x00, 0xf5, 0xe5, 0x35, 0xe9,
  0x2a, 0xfd, 0xd3, 0x02, 0x28, 0xd3, 0x02, 0x2a, 0x06, 0x24, 0x03, 0x25,
  0x30, 0xf9, 0x32, 0x09, 0xf1, 0xfe, 0x03, 0x10, 0x1c, 0xfc, 0xe7, 0xf2,
  0x00, 0x96, 0xcd, 0x1f, 0x2e, 0x09, 0xf0, 0x35, 0xe3, 0xd6, 0x1b, 0x02,
  0x0e, 0xc7, 0xde, 0x16, 0xf5, 0x08, 0x09, 0xf5, 0xfa, 0xd4, 0x08, 0x10,
  0xf8, 0xfa, 0x04, 0xf3, 0x08, 0xa1, 0xf3, 0x24, 0xee, 0x13, 0x1b, 0xd3,
  0xd9, 0xf3, 0x2d, 0xf9, 0x24, 0xe5, 0xee, 0x0d, 0x05, 0xbf, 0xf8, 0x11,
  0xf1, 0x14, 0x0f, 0xf6, 0xd7, 0x0b, 0x27, 0x20, 0x10, 0xfd, 0xd2, 0xe4,
  0xf1, 0xdc, 0x05, 0xcf, 0x05, 0x9b, 0xc4, 0x22, 0x2f, 0xea, 0xfa, 0x1f,
  0xfa, 0xc8, 0x23, 0xed, 0x21, 0xc0, 0xe0, 0x17, 0xf4, 0xf3, 0x0d, 0xeb,
  0xff, 0xde, 0xfc, 0x23, 0x12, 0xb6, 0xfe, 0xf0, 0x05, 0x99, 0x18, 0x0f,
  0xf6, 0xfc, 0x02, 0xf6, 0xf5, 0xe8, 0x1a, 0xe4, 0x29, 0xc9, 0xfd, 0xfc,
  0x10, 0xc1, 0xf9, 0x0b, 0xf7, 0x23, 0x29, 0x3d, 0xc6, 0xd8, 0x1c, 0xda,
  0x35, 0xda, 0xf4, 0xe3, 0x08, 0xe9, 0xba, 0x1a, 0xfa, 0xaa, 0xdc, 0x17,
  0x2e, 0x14, 0xfd, 0x00, 0xf3, 0xda, 0x21, 0xf1, 0x23, 0xb0, 0xd5, 0x21,
  0x03, 0x04, 0x0f, 0xd9, 0xf4, 0xe4, 0xff, 0x36, 0x15, 0xf1, 0x04, 0xee,
  0xe7, 0x22, 0x17, 0xfd, 0x09, 0xf2, 0x07, 0x13, 0x23, 0xf1, 0x29, 0xf0,
  0x1a, 0xdd, 0xf5, 0xf4, 0x18, 0xe0, 0x05, 0xf8, 0x01, 0x1b, 0x1c, 0x1c,
  0x0b, 0x02, 0xee, 0xf8, 0x27, 0xb4, 0xeb, 0xff, 0xf2, 0xe1, 0xd6, 0xee,
  0xf9, 0xa3, 0xee, 0x11, 0x36, 0xf7, 0xf9, 0xec, 0xff, 0xcd, 0x15, 0xf9,
  0x24, 0xed, 0xd7, 0x24, 0x0a, 0x06, 0x26, 0xcd, 0xf0, 0xef, 0x07, 0x23,
  0x1e, 0xef, 0x10, 0xf8, 0xdf, 0x1e, 0x19, 0x20, 0x07, 0x06, 0x14, 0x0b,
  0x1c, 0xf6, 0x23, 0xf0, 0x05, 0xe8, 0x04, 0x0d, 0xfb, 0xcb, 0xf3, 0x04,
  0xf7, 0xfa, 0xce, 0xfb, 0xf3, 0xd4, 0xf1, 0xdd, 0xed, 0xe5, 0x07, 0x12,
  0xcc, 0xed, 0xe4, 0xeb, 0xf4, 0xd0, 0xe3, 0x21, 0x2b, 0xe9, 0x07, 0xe2,
  0xe0, 0xea, 0x39, 0xf7, 0x13, 0xc5, 0xd1, 0x2b, 0x00, 0x0e, 0x24, 0xd8,
  0xf2, 0xe3, 0x03, 0x06, 0x0d, 0xd6, 0xf4, 0x04, 0xe5, 0xfc, 0xf8, 0x03,
  0xfa, 0xfa, 0x13, 0x2f, 0xee, 0xff, 0x08, 0xdc, 0x2b, 0x08, 0xea, 0x07,
  0xfb, 0xe0, 0xf5, 0x1e, 0xf3, 0xff, 0x0b, 0x01, 0xbb, 0xfb, 0xe2, 0xf8,
  0x01, 0xd4, 0x0a, 0xf3, 0xe3, 0xef, 0xe9, 0x21, 0xfe, 0xd5, 0xe3, 0x1a,
  0x1f, 0xf8, 0xfe, 0x08, 0xf5, 0xf5, 0x19, 0x03, 0x1a, 0xc5, 0xf8, 0x1d,
  0x00, 0x10, 0x0a, 0xd3, 0xce, 0xf3, 0xee, 0x04, 0x08, 0xeb, 0xfe, 0xf3,
  0xe2, 0xe2, 0x0b, 0x04, 0x06, 0x08, 0x1c, 0x45, 0x18, 0xed, 0x01, 0xf4,
  0x18, 0xff, 0x10, 0x01, 0xfd, 0xd0, 0xe7, 0x38, 0x04, 0xec, 0xfc, 0x10,
  0xc2, 0xee, 0xdf, 0xf5, 0xc9, 0x12, 0x10, 0xf3, 0xe1, 0x0b, 0xe9, 0xd8,
  0xfc, 0xd4, 0xdd, 0x0c, 0x1c, 0xfa, 0x01, 0x0d, 0xf2, 0xee, 0x4c, 0xf2,
  0x0a, 0xa8, 0x00, 0x20, 0xfd, 0x15, 0x08, 0xf5, 0xf6, 0xe8, 0xf7, 0xda,
  0x16, 0x0d, 0xfb, 0x08, 0xd6, 0xe4, 0xd1, 0x16, 0x02, 0xf2, 0x16, 0x52,
  0x1d, 0xe3, 0x02, 0xe1, 0x0e, 0xe6, 0xf9, 0xf2, 0x02, 0xd6, 0xef, 0x2c,
  0xf8, 0x02, 0x14, 0x09, 0xa5, 0xcd, 0xb7, 0xe7, 0xf6, 0x10, 0xee, 0xe8,
  0xe2, 0xf2, 0xea, 0x14, 0x09, 0xe7, 0xf4, 0x07, 0x11, 0x17, 0x1d, 0x25,
  0xdc, 0xd3, 0x10, 0xfa, 0x10, 0xb4, 0x1d, 0x10, 0xf7, 0x06, 0xf5, 0xe3,
  0xc3, 0xe8, 0xfe, 0xe4, 0x0b, 0xdb, 0xfd, 0xec, 0xda, 0xd6, 0xea, 0x05,
  0xf9, 0xfb, 0xfd, 0x24, 0x0b, 0xe1, 0xfa, 0xe4, 0x0e, 0xe8, 0x00, 0xf2,
  0xed, 0xce, 0xfe, 0x01, 0xf6, 0x07, 0x09, 0x06, 0xe0, 0xf9, 0x07, 0xcf,
  0x02, 0xf9, 0xe3, 0x1b, 0xef, 0x1e, 0xcd, 0x06, 0xfe, 0xe7, 0xe5, 0x08,
  0xd0, 0x0c, 0xfe, 0x18, 0xe0, 0xf1, 0xe4, 0xe7, 0x1d, 0xcf, 0x28, 0xfe,
  0x06, 0x05, 0xf1, 0xe6, 0xce, 0xff, 0x00, 0xf3, 0x18, 0xec, 0xda, 0xf0,
  0xff, 0xeb, 0x10, 0x1c, 0xf7, 0x1c, 0xd9, 0xf9, 0xf6, 0xf1, 0xd2, 0xe0,
  0xf7, 0xd8, 0xf8, 0xe9, 0xe4, 0x11, 0x06, 0x05, 0xff, 0x15, 0x0a, 0xe6,
  0x01, 0xf8, 0x00, 0xe3, 0xf1, 0xe3, 0x1b, 0x05, 0xd9, 0x09, 0xf2, 0xdd,
  0x09, 0x2c, 0x21, 0x07, 0xeb, 0x0f, 0x17, 0xf0, 0x08, 0xf5, 0xe8, 0xf7,
  0x0e, 0xcd, 0x00, 0x18, 0x09, 0xf8, 0x09, 0xe5, 0x1f, 0x28, 0x21, 0x18,
  0xe9, 0xf1, 0x1e, 0x0a, 0x10, 0xae, 0xff, 0x1f, 0x0d, 0x1b, 0x15, 0x03,
  0x0d, 0xff, 0xe3, 0x12, 0xf7, 0x3e, 0x1a, 0x05, 0xf0, 0xe7, 0x12, 0x0f,
  0x08, 0x13, 0xee, 0x0f, 0xfa, 0xf6, 0x3d, 0xeb, 0xcc, 0xfd, 0x1e, 0x01,
  0xff, 0x01, 0xb8, 0xf7, 0x0b, 0x3a, 0x0f, 0xf9, 0xf0, 0x13, 0x00, 0xfb,
  0xe9, 0xda, 0xce, 0x09, 0xea, 0x9b, 0x0d, 0x05, 0xfa, 0xfc, 0xec, 0xfd,
  0xcc, 0x17, 0xee, 0x21, 0xff, 0x1b, 0xeb, 0x07, 0xe7, 0x03, 0x13, 0x02,
  0xf9, 0xf8, 0x0b, 0x42, 0x17, 0x06, 0xd0, 0xfd, 0xfc, 0x06, 0xe7, 0x04,
  0xe7, 0x5d, 0xf7, 0xfe, 0xf5, 0xd0, 0x11, 0xf0, 0x49, 0x04, 0x42, 0xf7,
  0xdf, 0xf8, 0x3e, 0xea, 0x00, 0x13, 0xe8, 0xe1, 0xf8, 0x25, 0x15, 0xf0,
  0xed, 0x1b, 0xdf, 0xf3, 0x06, 0xd5, 0xcb, 0x08, 0xf7, 0xcc, 0x1d, 0xd0,
  0xf8, 0xeb, 0xfa, 0xc7, 0xa7, 0x1c, 0x11, 0x0d, 0xf7, 0x18, 0xf6, 0xfe,
  0xe4, 0xe6, 0x06, 0xec, 0x03, 0xf3, 0xe5, 0x1e, 0x2c, 0x16, 0xaa, 0xf8,
  0xce, 0xf5, 0xf3, 0x14, 0x0f, 0x1d, 0xfb, 0xf2, 0x0b, 0xe3, 0xfe, 0x1c,
  0x43, 0x15, 0x43, 0x03, 0x05, 0x04, 0xf6, 0xec, 0xf2, 0x04, 0xfb, 0xd3,
  0xfe, 0x1b, 0x23, 0xe9, 0xef, 0x13, 0xf7, 0x07, 0x03, 0x03, 0x09, 0x09,
  0x02, 0xb0, 0x1c, 0xe3, 0x0d, 0xff, 0xf8, 0xdf, 0xdb, 0x00, 0xed, 0xfa,
  0xe9, 0x1d, 0x20, 0xfd, 0xf5, 0x22, 0xe9, 0xf7, 0xf9, 0xee, 0xfb, 0x2d,
  0x19, 0x0d, 0xcc, 0x08, 0xf0, 0x09, 0x1b, 0x0d, 0x0f, 0x51, 0xf4, 0xf4,
  0xff, 0x11, 0xf8, 0x12, 0x57, 0x06, 0x05, 0x0b, 0x0d, 0x09, 0x00, 0x0c,
  0x04, 0x01, 0x29, 0x04, 0x0a, 0x19, 0x09, 0xe3, 0xd3, 0x07, 0xf5, 0x0a,
  0xf4, 0x0f, 0xf0, 0x0c, 0xe1, 0xeb, 0x2d, 0xc5, 0xff, 0xf0, 0xfb, 0xf1,
  0xf2, 0x07, 0xe2, 0xec, 0xf4, 0x1e, 0x02, 0xf7, 0x0b, 0x3b, 0xeb, 0x0b,
  0x09, 0xf2, 0xc9, 0xfc, 0x1e, 0x04, 0xd8, 0x0c, 0xb6, 0x1b, 0x00, 0xe8,
  0x03, 0x2c, 0xf9, 0x10, 0x0c, 0xf3, 0xd8, 0xeb, 0x5f, 0x00, 0xfc, 0x03,
  0x26, 0x29, 0x17, 0x0f, 0xdc, 0x1e, 0xfd, 0x29, 0x05, 0x27, 0x17, 0xc2,
  0xd0, 0x1b, 0xed, 0x0b, 0xfe, 0xf7, 0xda, 0x03, 0xbc, 0xf7, 0x1f, 0xdd,
  0x01, 0x0e, 0xf5, 0x0a, 0x0a, 0x0f, 0xe7, 0xf7, 0xd1, 0x2a, 0xfd, 0x0f,
  0x00, 0x4d, 0x00, 0xea, 0x00, 0xef, 0x09, 0xed, 0x0f, 0x14, 0xef, 0x16,
  0xd6, 0x1d, 0x10, 0xfb, 0x06, 0x5d, 0xf8, 0x14, 0xf7, 0xdc, 0xf4, 0xf2,
  0x2e, 0x23, 0x08, 0x1e, 0xfa, 0x19, 0x07, 0xfb, 0xbd, 0x15, 0x24, 0xcf,
  0xff, 0x15, 0x04, 0xac, 0xcd, 0xf1, 0xf0, 0xeb, 0xfe, 0xd3, 0xf7, 0xff,
  0xdc, 0xf8, 0x2e, 0xbe, 0xf5, 0x17, 0xf1, 0x0c, 0xff, 0x06, 0xcf, 0x04,
  0xe6, 0x2b, 0xe5, 0x02, 0x11, 0x00, 0xf7, 0xfd, 0xf7, 0x06, 0xd6, 0x09,
  0x0b, 0x0c, 0xf0, 0x0c, 0xf7, 0x10, 0x1a, 0xf6, 0xe7, 0x13, 0xff, 0xfb,
  0xf9, 0xd7, 0x0e, 0xf6, 0x28, 0xfc, 0xde, 0x15, 0xde, 0x2d, 0xfb, 0xfc,
  0xd7, 0xfb, 0x00, 0xcf, 0xfb, 0x13, 0xfb, 0xd4, 0xcb, 0x09, 0xee, 0x06,
  0xf0, 0xe1, 0x02, 0xf8, 0xc9, 0xbc, 0x1d, 0xc9, 0x03, 0xf9, 0xf8, 0x13,
  0xe3, 0x04, 0xed, 0xf8, 0xdd, 0x36, 0xe6, 0x04, 0x06, 0x12, 0x11, 0x03,
  0xff, 0xf7, 0xf4, 0x16, 0x10, 0xfe, 0xe3, 0x0e, 0xf4, 0x16, 0x1e, 0x00,
  0xfa, 0x47, 0x02, 0x0a, 0xfd, 0xe3, 0xfb, 0x2e, 0x7f, 0x0e, 0xe3, 0x11,
  0xd8, 0x1a, 0x06, 0xff, 0x04, 0x25, 0x0d, 0xf4, 0x03, 0x2e, 0xf8, 0xaa,
  0xcc, 0x39, 0xd5, 0x06, 0xf5, 0xde, 0xdd, 0x01, 0xd6, 0xd1, 0x27, 0xaa,
  0x00, 0xe4, 0xcc, 0x0a, 0xfd, 0x03, 0xd6, 0x02, 0xf9, 0x12, 0xf4, 0xf3,
  0x09, 0x01, 0x14, 0xe7, 0xf8, 0x08, 0xd5, 0x00, 0x0f, 0x18, 0xf6, 0x1d,
  0xe9, 0x0f, 0x1d, 0xf1, 0xf4, 0x1d, 0xff, 0xfa, 0x0c, 0xf9, 0xff, 0x09,
  0x5a, 0x15, 0xfe, 0x14, 0xe6, 0x3d, 0x01, 0x05, 0xe7, 0x19, 0x08, 0x07,
  0xfe, 0x09, 0xff, 0xd5, 0xce, 0x23, 0xfb, 0x07, 0xf8, 0xc2, 0xd1, 0xfa,
  0xf1, 0xb5, 0x29, 0xd9, 0xfc, 0xf9, 0xed, 0xf3, 0xee, 0x17, 0xed, 0xf8,
  0x18, 0x23, 0x11, 0x0f, 0xeb, 0xea, 0x0a, 0xe9, 0x07, 0xe5, 0xe8, 0xf2,
  0xf9, 0x0d, 0x0e, 0xf9, 0x0a, 0xff, 0x00, 0x02, 0xd4, 0x0e, 0xf1, 0x06,
  0xf7, 0x01, 0x14, 0xf2, 0x29, 0x08, 0x15, 0x17, 0x12, 0xeb, 0xf6, 0x0f,
  0x34, 0xda, 0x07, 0x0c, 0x09, 0x1c, 0x11, 0xd8, 0xd0, 0x21, 0xf3, 0xfe,
  0xfb, 0xe6, 0xca, 0xfd, 0xf0, 0xb6, 0x28, 0xce, 0x02, 0x03, 0xf9, 0xfc,
  0xf5, 0x24, 0xed, 0x38, 0xe4, 0x20, 0xf4, 0x03, 0x10, 0xbc, 0x1e, 0xcd,
  0xf8, 0x0a, 0xe8, 0xd5, 0xc4, 0x19, 0x1e, 0x0b, 0x07, 0x2b, 0x1a, 0xf2,
  0xfc, 0xf9, 0x0b, 0xd1, 0x0c, 0xed, 0xfa, 0xd1, 0x21, 0x24, 0x2e, 0x16,
  0xd8, 0xf7, 0xe8, 0xe6, 0xef, 0xf4, 0x12, 0xbf, 0xf5, 0x18, 0x20, 0xe2,
  0xfc, 0x1a, 0xf9, 0x0b, 0x05, 0x14, 0xf8, 0xf5, 0xfb, 0xd4, 0x1b, 0xed,
  0xfb, 0x02, 0xf4, 0xfc, 0x0e, 0x1d, 0x0b, 0x1d, 0xf5, 0x38, 0x01, 0x1d,
  0x18, 0xa0, 0x0d, 0xb1, 0x0c, 0x09, 0x14, 0xe6, 0xe2, 0x06, 0x0b, 0x20,
  0x09, 0x1f, 0xfa, 0xfc, 0xe6, 0xf4, 0x0d, 0x0b, 0x0a, 0x0e, 0xec, 0xca,
  0xd2, 0x01, 0x13, 0x06, 0xf5, 0x10, 0x15, 0xff, 0xef, 0xef, 0x2a, 0xfe,
  0x02, 0x26, 0x32, 0xf4, 0x08, 0x51, 0xf2, 0x1e, 0x10, 0xf1, 0x2a, 0x0a,
  0x07, 0xed, 0x09, 0xf4, 0x07, 0x0b, 0x0e, 0x1a, 0xd0, 0x0a, 0x05, 0x12,
  0x21, 0x5c, 0x25, 0x0f, 0xff, 0xd2, 0xef, 0xcf, 0xf9, 0xf8, 0x01, 0x20,
  0xfa, 0xfc, 0x0b, 0x0b, 0x12, 0x08, 0x12, 0xf4, 0x20, 0x02, 0xf3, 0x0b,
  0x13, 0x39, 0x09, 0xf5, 0xc6, 0x1a, 0xf6, 0x17, 0x40, 0x34, 0xf7, 0xfd,
  0x19, 0xf4, 0x0d, 0x35, 0xf7, 0x0a, 0x0b, 0xf2, 0x00, 0xd2, 0xfa, 0xcd,
  0xe1, 0x11, 0xf0, 0x0d, 0xf4, 0x2d, 0xf4, 0xf2, 0x02, 0xff, 0xee, 0x21,
  0x04, 0xf6, 0x02, 0xfc, 0xf4, 0xf4, 0xff, 0x06, 0xe8, 0x1c, 0x15, 0xe4,
  0xf7, 0xdf, 0xfb, 0x0a, 0x00, 0xff, 0xed, 0x15, 0x41, 0xf3, 0x08, 0x01,
  0x05, 0x00, 0x05, 0xf9, 0xff, 0xe3, 0x2a, 0x2e, 0x0b, 0xf2, 0xc0, 0xfd,
  0x23, 0x06, 0x11, 0x03, 0xe0, 0xfe, 0x23, 0xe0, 0x08, 0x13, 0x13, 0x15,
  0x0a, 0xfe, 0x0a, 0xe9, 0x00, 0x1c, 0xfb, 0xfc, 0xf3, 0x5e, 0xeb, 0xe9,
  0xfc, 0xf7, 0xf2, 0x11, 0x1e, 0x08, 0xf9, 0x0a, 0xed, 0x0e, 0xf6, 0x05,
  0xfc, 0x33, 0x07, 0xfc, 0xf9, 0xf9, 0x1a, 0xfa, 0x14, 0x0d, 0xd0, 0x0d,
  0x1a, 0xfe, 0x04, 0xed, 0xd9, 0xf9, 0xfa, 0xe7, 0xf5, 0xf3, 0x17, 0xbe,
  0x01, 0x0f, 0xe8, 0x19, 0x1d, 0xfe, 0xe6, 0xf1, 0xca, 0xf0, 0xef, 0xc7,
  0x05, 0x28, 0x1d, 0x09, 0x04, 0xf0, 0x11, 0xe2, 0x05, 0x2e, 0x04, 0x09,
  0x03, 0x46, 0xf3, 0x06, 0xff, 0x11, 0xf9, 0x27, 0x15, 0x19, 0x10, 0x01,
  0xf7, 0xf1, 0x00, 0x04, 0xf8, 0x1f, 0x15, 0x1c, 0x04, 0xfe, 0x07, 0xf5,
  0x03, 0x06, 0xf8, 0x04, 0x0c, 0x11, 0x03, 0xe7, 0xd4, 0xf7, 0x04, 0xf4,
  0xfc, 0xef, 0xf9, 0xdb, 0xc5, 0xfd, 0xe3, 0x05, 0xd5, 0x08, 0x1f, 0x05,
  0xab, 0x05, 0x07, 0xe1, 0x0d, 0x1b, 0x16, 0x06, 0xfe, 0xea, 0x11, 0xe1,
  0x1c, 0x2d, 0xe3, 0x07, 0xfc, 0x5e, 0x00, 0x00, 0xf7, 0xec, 0xf8, 0x0c,
  0x1e, 0x12, 0x0c, 0xe3, 0x02, 0xe9, 0xf6, 0xfe, 0xf9, 0xe0, 0x09, 0x05,
  0xfc, 0x21, 0x08, 0xe3, 0xea, 0x05, 0xfc, 0xf9, 0x06, 0xf5, 0x0f, 0x04,
  0xd2, 0xda, 0x01, 0xe2, 0xfa, 0xef, 0xf8, 0xd4, 0x9e, 0xf8, 0xd7, 0xf4,
  0xff, 0xf6, 0x04, 0xff, 0xea, 0xf4, 0xe1, 0x02, 0xf7, 0x21, 0x20, 0x04,
  0xf1, 0xe8, 0x18, 0xdb, 0x1c, 0x30, 0xe8, 0x04, 0x09, 0x30, 0xf4, 0x13,
  0xff, 0x05, 0xff, 0x0e, 0x0d, 0x0b, 0x11, 0xe9, 0x05, 0xe8, 0xf9, 0x06,
  0xf7, 0x1b, 0x0c, 0xe1, 0xfb, 0x01, 0x12, 0x19, 0xfa, 0xeb, 0xea, 0x06,
  0x0f, 0xe5, 0x11, 0xf4, 0xf6, 0x08, 0x01, 0xf2, 0xfe, 0xee, 0x09, 0x0e,
  0xb7, 0xfb, 0xe5, 0xea, 0xde, 0xe3, 0x03, 0x02, 0x20, 0xff, 0xfd, 0x18,
  0xff, 0x1c, 0x24, 0x0a, 0xf7, 0xf3, 0x13, 0xef, 0x12, 0x42, 0xe5, 0xf5,
  0x13, 0x2e, 0xfb, 0x13, 0x0a, 0xff, 0xfb, 0x0f, 0xf4, 0x01, 0x10, 0x02,
  0x07, 0xef, 0x01, 0x00, 0x08, 0x00, 0xfa, 0x02, 0x04, 0x11, 0x0d, 0x0e,
  0x0b, 0x0a, 0x02, 0xff, 0xf3, 0xfc, 0xf2, 0xfe, 0xfc, 0xe0, 0x03, 0xef,
  0x0b, 0x05, 0xfb, 0xd6, 0xfa, 0x07, 0xe1, 0x06, 0xe1, 0x0c, 0xf5, 0x1d,
  0x05, 0x12, 0x15, 0x17, 0xf3, 0x28, 0x15, 0x1d, 0xed, 0xe5, 0x12, 0xfc,
  0x0b, 0x47, 0xe3, 0xff, 0x08, 0x34, 0x05, 0x13, 0xf6, 0xe8, 0xf0, 0x14,
  0x17, 0xfb, 0x0f, 0xd4, 0x03, 0xfb, 0xfd, 0x00, 0x0f, 0xfb, 0x03, 0x1a,
  0x01, 0x07, 0x15, 0xe8, 0xcc, 0x0b, 0xf4, 0x08, 0xe9, 0x11, 0x06, 0x01,
  0xf3, 0xf2, 0x01, 0x02, 0x0b, 0x13, 0xe6, 0xe2, 0xf4, 0xf4, 0x1a, 0x08,
  0x01, 0x0d, 0x03, 0xf6, 0x2b, 0x15, 0x09, 0x20, 0xf9, 0x28, 0x1d, 0x18,
  0xf2, 0xf3, 0x0d, 0xfa, 0x0a, 0x47, 0xe5, 0xfc, 0xff, 0x41, 0x02, 0x08,
  0x07, 0xf9, 0xf5, 0x16, 0x2e, 0x10, 0x06, 0xe3, 0xff, 0xdf, 0x12, 0xf3,
  0x14, 0xe4, 0xf1, 0xfd, 0x08, 0x07, 0x00, 0xe2, 0xda, 0xfb, 0xfc, 0xfc,
  0xf3, 0xf8, 0xe6, 0xfd, 0x04, 0xe4, 0x07, 0x00, 0x01, 0x05, 0x12, 0xd4,
  0x96, 0x14, 0x25, 0x08, 0x1e, 0xfc, 0x02, 0xf9, 0x27, 0xf2, 0x19, 0x0b,
  0xfc, 0x0a, 0x26, 0x0a, 0xfb, 0xec, 0x09, 0x13, 0x19, 0x2a, 0xf1, 0xf9,
  0x0b, 0x5b, 0xfb, 0x0e, 0x07, 0xff, 0xf8, 0x28, 0x11, 0x04, 0x20, 0x0b,
  0xf8, 0x06, 0x08, 0x04, 0x19, 0x02, 0x0e, 0x0b, 0x04, 0xfe, 0x06, 0xdd,
  0x03, 0xeb, 0xf3, 0x03, 0xee, 0x01, 0xf0, 0x08, 0x03, 0xfd, 0xf5, 0x00,
  0xf9, 0x15, 0x00, 0xec, 0xe8, 0xfc, 0x1f, 0xf9, 0x12, 0xfe, 0xe3, 0x05,
  0x38, 0xed, 0xf1, 0xea, 0x06, 0x07, 0x0f, 0x09, 0x06, 0xe9, 0x05, 0xfc,
  0x16, 0x21, 0xf4, 0xf9, 0x0d, 0x63, 0xde, 0x10, 0xfb, 0xf5, 0x07, 0x26,
  0x24, 0xf8, 0x10, 0xf4, 0x05, 0xf1, 0xf5, 0xf0, 0x14, 0x2f, 0xe8, 0x1d,
  0xf8, 0x05, 0x0b, 0xcc, 0xe9, 0x06, 0xfb, 0x07, 0xda, 0x02, 0xf5, 0x10,
  0x0f, 0x14, 0xff, 0xdc, 0xfa, 0x08, 0xdd, 0x05, 0x06, 0x02, 0x16, 0xff,
  0x09, 0x07, 0x02, 0xec, 0xee, 0x0d, 0x11, 0x11, 0xf7, 0xf8, 0x16, 0x10,
  0x0a, 0xe5, 0xfb, 0xf5, 0x10, 0x33, 0xdc, 0x05, 0x10, 0x74, 0xc9, 0x0d,
  0x07, 0xfa, 0x09, 0x11, 0x14, 0xf4, 0x0e, 0xe8, 0xf7, 0xea, 0x0c, 0xf2,
  0x16, 0x3a, 0x03, 0x1d, 0xf9, 0x02, 0x07, 0xe0, 0x20, 0xf1, 0xe9, 0x0e,
  0xe0, 0xf5, 0xf3, 0x12, 0x05, 0x0f, 0x06, 0x04, 0xf1, 0xff, 0x04, 0x1b,
  0x06, 0xfa, 0x1e, 0xf2, 0x1d, 0xee, 0x1f, 0x23, 0x18, 0x08, 0xfe, 0x0c,
  0xf8, 0xf5, 0xfe, 0x06, 0x09, 0xdb, 0xe4, 0xcf, 0x1c, 0x1c, 0xed, 0xf7,
  0xe6, 0x51, 0xd2, 0xfe, 0x03, 0xf2, 0xfe, 0x1d, 0x37, 0xf6, 0x00, 0xfe,
  0x0c, 0xe1, 0xee, 0xfd, 0x1c, 0x61, 0x0e, 0x24, 0xfc, 0xfc, 0xf8, 0xd9,
  0x19, 0x06, 0xfc, 0x03, 0xed, 0x00, 0xff, 0x00, 0x05, 0x2f, 0x04, 0xe2,
  0xf8, 0x02, 0x14, 0x2c, 0x4d, 0xf7, 0xe1, 0x21, 0x14, 0x00, 0x0c, 0xfd,
  0x08, 0xe3, 0x0f, 0x0a, 0x04, 0xe6, 0xef, 0xf4, 0x18, 0xb6, 0x10, 0xce,
  0x10, 0x12, 0xf4, 0xf4, 0xe4, 0x28, 0xc7, 0x21, 0xf5, 0xe9, 0xfb, 0x02,
  0x45, 0x09, 0xf8, 0xf4, 0xdd, 0xd4, 0xee, 0xf5, 0xf5, 0x20, 0xf1, 0x03,
  0x00, 0x08, 0x0f, 0xec, 0xff, 0x08, 0x0e, 0xfa, 0xf7, 0x13, 0xfc, 0x1f,
  0xe9, 0xf2, 0xf6, 0xf4, 0xf6, 0xc6, 0xe2, 0x17, 0x26, 0xfa, 0x0a, 0x02,
  0xf7, 0xf3, 0xfa, 0xf3, 0x03, 0xf6, 0xf9, 0x07, 0x22, 0xff, 0xff, 0xff,
  0x04, 0x00, 0x00, 0x00, 0x0c, 0x00, 0x00, 0x00, 0x26, 0xfb, 0xff, 0xff,
  0xbd, 0x27, 0x00, 0x00, 0x20, 0xe4, 0xff, 0xff, 0x3a, 0xff, 0xff, 0xff,
  0x04, 0x00, 0x00, 0x00, 0x08, 0x00, 0x00, 0x00, 0xff, 0xff, 0xff, 0xff,
  0x40, 0x03, 0x00, 0x00, 0x4e, 0xff, 0xff, 0xff, 0x04, 0x00, 0x00, 0x00,
  0x10, 0x00, 0x00, 0x00, 0x01, 0x00, 0x00, 0x00, 0x31, 0x00, 0x00, 0x00,
  0x0d, 0x00, 0x00, 0x00, 0x01, 0x00, 0x00, 0x00, 0xe4, 0xf3, 0xff, 0xff,
  0xe8, 0xf3, 0xff, 0xff, 0x0f, 0x00, 0x00, 0x00, 0x4d, 0x4c, 0x49, 0x52,
  0x20, 0x43, 0x6f, 0x6e, 0x76, 0x65, 0x72, 0x74, 0x65, 0x64, 0x2e, 0x00,
  0x01, 0x00, 0x00, 0x00, 0x14, 0x00, 0x00, 0x00, 0x00, 0x00, 0x0e, 0x00,
  0x18, 0x00, 0x14, 0x00, 0x10, 0x00, 0x0c, 0x00, 0x08, 0x00, 0x04, 0x00,
  0x0e, 0x00, 0x00, 0x00, 0x14, 0x00, 0x00, 0x00, 0x1c, 0x00, 0x00, 0x00,
  0x18, 0x02, 0x00, 0x00, 0x1c, 0x02, 0x00, 0x00, 0x20, 0x02, 0x00, 0x00,
  0x04, 0x00, 0x00, 0x00, 0x6d, 0x61, 0x69, 0x6e, 0x00, 0x00, 0x00, 0x00,
  0x08, 0x00, 0x00, 0x00, 0xdc, 0x01, 0x00, 0x00, 0x80, 0x01, 0x00, 0x00,
  0x20, 0x01, 0x00, 0x00, 0xdc, 0x00, 0x00, 0x00, 0x9c, 0x00, 0x00, 0x00,
  0x78, 0x00, 0x00, 0x00, 0x40, 0x00, 0x00, 0x00, 0x04, 0x00, 0x00, 0x00,
  0xaa, 0xfe, 0xff, 0xff, 0x1c, 0x00, 0x00, 0x00, 0x00, 0x00, 0x00, 0x09,
  0x1c, 0x00, 0x00, 0x00, 0x20, 0x00, 0x00, 0x00, 0x04, 0x00, 0x00, 0x00,
  0x00, 0x00, 0x06, 0x00, 0x08, 0x00, 0x04, 0x00, 0x06, 0x00, 0x00, 0x00,
  0x00, 0x00, 0x80, 0x3f, 0x01, 0x00, 0x00, 0x00, 0x10, 0x00, 0x00, 0x00,
  0x01, 0x00, 0x00, 0x00, 0x0f, 0x00, 0x00, 0x00, 0xe2, 0xfe, 0xff, 0xff,
  0x14, 0x00, 0x00, 0x00, 0x00, 0x00, 0x00, 0x08, 0x10, 0x00, 0x00, 0x00,
  0x14, 0x00, 0x00, 0x00, 0x03, 0x00, 0x00, 0x00, 0xb0, 0xf4, 0xff, 0xff,
  0x01, 0x00, 0x00, 0x00, 0x0f, 0x00, 0x00, 0x00, 0x03, 0x00, 0x00, 0x00,
  0x0e, 0x00, 0x00, 0x00, 0x04, 0x00, 0x00, 0x00, 0x03, 0x00, 0x00, 0x00,
  0xba, 0xfe, 0xff, 0xff, 0x08, 0x00, 0x00, 0x00, 0x0c, 0x00, 0x00, 0x00,
  0x01, 0x00, 0x00, 0x00, 0x0e, 0x00, 0x00, 0x00, 0x02, 0x00, 0x00, 0x00,
  0x0d, 0x00, 0x00, 0x00, 0x02, 0x00, 0x00, 0x00, 0x36, 0xff, 0xff, 0xff,
  0x14, 0x00, 0x00, 0x00, 0x00, 0x00, 0x00, 0x05, 0x20, 0x00, 0x00, 0x00,
  0x24, 0x00, 0x00, 0x00, 0x02, 0x00, 0x00, 0x00, 0x82, 0xff, 0xff, 0xff,
  0x02, 0x00, 0x00, 0x00, 0x02, 0x00, 0x00, 0x00, 0x02, 0x00, 0x00, 0x00,
  0x02, 0x00, 0x00, 0x00, 0x01, 0x00, 0x00, 0x00, 0x0d, 0x00, 0x00, 0x00,
  0x01, 0x00, 0x00, 0x00, 0x0c, 0x00, 0x00, 0x00, 0x72, 0xff, 0xff, 0xff,
  0x14, 0x00, 0x00, 0x00, 0x00, 0x00, 0x00, 0x01, 0x1c, 0x00, 0x00, 0x00,
  0x20, 0x00, 0x00, 0x00, 0x01, 0x00, 0x00, 0x00, 0x64, 0xff, 0xff, 0xff,
  0x00, 0x00, 0x00, 0x01, 0x01, 0x00, 0x00, 0x00, 0x01, 0x00, 0x00, 0x00,
  0x01, 0x00, 0x00, 0x00, 0x0c, 0x00, 0x00, 0x00, 0x03, 0x00, 0x00, 0x00,
  0x0b, 0x00, 0x00, 0x00, 0x06, 0x00, 0x00, 0x00, 0x05, 0x00, 0x00, 0x00,
  0xb2, 0xff, 0xff, 0xff, 0x24, 0x00, 0x00, 0x00, 0x00, 0x00, 0x00, 0x05,
  0x30, 0x00, 0x00, 0x00, 0x34, 0x00, 0x00, 0x00, 0x02, 0x00, 0x00, 0x00,
  0x00, 0x00, 0x0e, 0x00, 0x14, 0x00, 0x00, 0x00, 0x10, 0x00, 0x0c, 0x00,
  0x08, 0x00, 0x04, 0x00, 0x0e, 0x00, 0x00, 0x00, 0x02, 0x00, 0x00, 0x00,
  0x02, 0x00, 0x00, 0x00, 0x02, 0x00, 0x00, 0x00, 0x02, 0x00, 0x00, 0x00,
  0x01, 0x00, 0x00, 0x00, 0x0b, 0x00, 0x00, 0x00, 0x01, 0x00, 0x00, 0x00,
  0x0a, 0x00, 0x00, 0x00, 0x00, 0x00, 0x0e, 0x00, 0x18, 0x00, 0x14, 0x00,
  0x10, 0x00, 0x0c, 0x00, 0x0b, 0x00, 0x04, 0x00, 0x0e, 0x00, 0x00, 0x00,
  0x20, 0x00, 0x00, 0x00, 0x00, 0x00, 0x00, 0x01, 0x28, 0x00, 0x00, 0x00,
  0x2c, 0x00, 0x00, 0x00, 0x01, 0x00, 0x00, 0x00, 0x0c, 0x00, 0x10, 0x00,
  0x00, 0x00, 0x0c, 0x00, 0x08, 0x00, 0x07, 0x00, 0x0c, 0x00, 0x00, 0x00,
  0x00, 0x00, 0x00, 0x01, 0x01, 0x00, 0x00, 0x00, 0x01, 0x00, 0x00, 0x00,
  0x01, 0x00, 0x00, 0x00, 0x0a, 0x00, 0x00, 0x00, 0x03, 0x00, 0x00, 0x00,
  0x09, 0x00, 0x00, 0x00, 0x08, 0x00, 0x00, 0x00, 0x07, 0x00, 0x00, 0x00,
  0x00, 0x00, 0x0a, 0x00, 0x0c, 0x00, 0x00, 0x00, 0x08, 0x00, 0x04, 0x00,
  0x0a, 0x00, 0x00, 0x00, 0x08, 0x00, 0x00, 0x00, 0x0c, 0x00, 0x00, 0x00,
  0x01, 0x00, 0x00, 0x00, 0x09, 0x00, 0x00, 0x00, 0x02, 0x00, 0x00, 0x00,
  0x00, 0x00, 0x00, 0x00, 0x01, 0x00, 0x00, 0x00, 0x01, 0x00, 0x00, 0x00,
  0x10, 0x00, 0x00, 0x00, 0x01, 0x00, 0x00, 0x00, 0x00, 0x00, 0x00, 0x00,
  0x11, 0x00, 0x00, 0x00, 0x00, 0x0a, 0x00, 0x00, 0x90, 0x09, 0x00, 0x00,
  0x44, 0x09, 0x00, 0x00, 0xc8, 0x08, 0x00, 0x00, 0x5c, 0x08, 0x00, 0x00,
  0x30, 0x07, 0x00, 0x00, 0x04, 0x06, 0x00, 0x00, 0x38, 0x05, 0x00, 0x00,
  0x6c, 0x04, 0x00, 0x00, 0xf8, 0x03, 0x00, 0x00, 0x2c, 0x03, 0x00, 0x00,
  0xb0, 0x02, 0x00, 0x00, 0xdc, 0x01, 0x00, 0x00, 0x60, 0x01, 0x00, 0x00,
  0xf4, 0x00, 0x00, 0x00, 0x70, 0x00, 0x00, 0x00, 0x04, 0x00, 0x00, 0x00,
  0x5a, 0xf6, 0xff, 0xff, 0x00, 0x00, 0x00, 0x01, 0x14, 0x00, 0x00, 0x00,
  0x30, 0x00, 0x00, 0x00, 0x11, 0x00, 0x00, 0x00, 0x00, 0x00, 0x00, 0x09,
  0x44, 0x00, 0x00, 0x00, 0x44, 0xf6, 0xff, 0xff, 0x08, 0x00, 0x00, 0x00,
  0x10, 0x00, 0x00, 0x00, 0x01, 0x00, 0x00, 0x00, 0x80, 0xff, 0xff, 0xff,
  0xff, 0xff, 0xff, 0xff, 0x01, 0x00, 0x00, 0x00, 0x00, 0x00, 0x80, 0x3b,
  0x19, 0x00, 0x00, 0x00, 0x53, 0x74, 0x61, 0x74, 0x65, 0x66, 0x75, 0x6c,
  0x50, 0x61, 0x72, 0x74, 0x69, 0x74, 0x69, 0x6f, 0x6e, 0x65, 0x64, 0x43,
  0x61, 0x6c, 0x6c, 0x3a, 0x30, 0x00, 0x00, 0x00, 0x02, 0x00, 0x00, 0x00,
  0x01, 0x00, 0x00, 0x00, 0x03, 0x00, 0x00, 0x00, 0xc2, 0xf6, 0xff, 0xff,
  0x00, 0x00, 0x00, 0x01, 0x14, 0x00, 0x00, 0x00, 0x30, 0x00, 0x00, 0x00,
  0x10, 0x00, 0x00, 0x00, 0x00, 0x00, 0x00, 0x09, 0x5c, 0x00, 0x00, 0x00,
  0xac, 0xf6, 0xff, 0xff, 0x08, 0x00, 0x00, 0x00, 0x10, 0x00, 0x00, 0x00,
  0x01, 0x00, 0x00, 0x00, 0x0b, 0x00, 0x00, 0x00, 0x00, 0x00, 0x00, 0x00,
  0x01, 0x00, 0x00, 0x00, 0x24, 0xb2, 0x47, 0x3d, 0x32, 0x00, 0x00, 0x00,
  0x73, 0x65, 0x71, 0x75, 0x65, 0x6e, 0x74, 0x69, 0x61, 0x6c, 0x2f, 0x79,
  0x5f, 0x70, 0x72, 0x65, 0x64, 0x2f, 0x4d, 0x61, 0x74, 0x4d, 0x75, 0x6c,
  0x3b, 0x73, 0x65, 0x71, 0x75, 0x65, 0x6e, 0x74, 0x69, 0x61, 0x6c, 0x2f,
  0x79, 0x5f, 0x70, 0x72, 0x65, 0x64, 0x2f, 0x42, 0x69, 0x61, 0x73, 0x41,
  0x64, 0x64, 0x00, 0x00, 0x02, 0x00, 0x00, 0x00, 0x01, 0x00, 0x00, 0x00,
  0x03, 0x00, 0x00, 0x00, 0x42, 0xf7, 0xff, 0xff, 0x00, 0x00, 0x00, 0x01,
  0x14, 0x00, 0x00, 0x00, 0x30, 0x00, 0x00, 0x00, 0x0f, 0x00, 0x00, 0x00,
  0x00, 0x00, 0x00, 0x09, 0x44, 0x00, 0x00, 0x00, 0x2c, 0xf7, 0xff, 0xff,
  0x08, 0x00, 0x00, 0x00, 0x10, 0x00, 0x00, 0x00, 0x01, 0x00, 0x00, 0x00,
  0x80, 0xff, 0xff, 0xff, 0xff, 0xff, 0xff, 0xff, 0x01, 0x00, 0x00, 0x00,
  0xb3, 0xe8, 0x0d, 0x3c, 0x1a, 0x00, 0x00, 0x00, 0x73, 0x65, 0x71, 0x75,
  0x65, 0x6e, 0x74, 0x69, 0x61, 0x6c, 0x2f, 0x66, 0x6c, 0x61, 0x74, 0x74,
  0x65, 0x6e, 0x2f, 0x52, 0x65, 0x73, 0x68, 0x61, 0x70, 0x65, 0x00, 0x00,
  0x02, 0x00, 0x00, 0x00, 0x01, 0x00, 0x00, 0x00, 0x40, 0x03, 0x00, 0x00,
  0xaa, 0xf7, 0xff, 0xff, 0x00, 0x00, 0x00, 0x01, 0x14, 0x00, 0x00, 0x00,
  0x30, 0x00, 0x00, 0x00, 0x0e, 0x00, 0x00, 0x00, 0x00, 0x00, 0x00, 0x09,
  0x4c, 0x00, 0x00, 0x00, 0x94, 0xf7, 0xff, 0xff, 0x08, 0x00, 0x00, 0x00,
  0x10, 0x00, 0x00, 0x00, 0x01, 0x00, 0x00, 0x00, 0x80, 0xff, 0xff, 0xff,
  0xff, 0xff, 0xff, 0xff, 0x01, 0x00, 0x00, 0x00, 0xb3, 0xe8, 0x0d, 0x3c,
  0x22, 0x00, 0x00, 0x00, 0x73, 0x65, 0x71, 0x75, 0x65, 0x6e, 0x74, 0x69,
  0x61, 0x6c, 0x2f, 0x6d, 0x61, 0x78, 0x5f, 0x70, 0x6f, 0x6f, 0x6c, 0x69,
  0x6e, 0x67, 0x32, 0x64, 0x5f, 0x31, 0x2f, 0x4d, 0x61, 0x78, 0x50, 0x6f,
  0x6f, 0x6c, 0x00, 0x00, 0x04, 0x00, 0x00, 0x00, 0x01, 0x00, 0x00, 0x00,
  0x0d, 0x00, 0x00, 0x00, 0x04, 0x00, 0x00, 0x00, 0x10, 0x00, 0x00, 0x00,
  0x22, 0xf8, 0xff, 0xff, 0x00, 0x00, 0x00, 0x01, 0x14, 0x00, 0x00, 0x00,
  0x30, 0x00, 0x00, 0x00, 0x0d, 0x00, 0x00, 0x00, 0x00, 0x00, 0x00, 0x09,
  0xa4, 0x00, 0x00, 0x00, 0x0c, 0xf8, 0xff, 0xff, 0x08, 0x00, 0x00, 0x00,
  0x10, 0x00, 0x00, 0x00, 0x01, 0x00, 0x00, 0x00, 0x80, 0xff, 0xff, 0xff,
  0xff, 0xff, 0xff, 0xff, 0x01, 0x00, 0x00, 0x00, 0xb3, 0xe8, 0x0d, 0x3c,
  0x7a, 0x00, 0x00, 0x00, 0x73, 0x65, 0x71, 0x75, 0x65, 0x6e, 0x74, 0x69,
  0x61, 0x6c, 0x2f, 0x63, 0x6f, 0x6e, 0x76, 0x32, 0x64, 0x5f, 0x31, 0x2f,
  0x52, 0x65, 0x6c, 0x75, 0x3b, 0x73, 0x65, 0x71, 0x75, 0x65, 0x6e, 0x74,
  0x69, 0x61, 0x6c, 0x2f, 0x63, 0x6f, 0x6e, 0x76, 0x32, 0x64, 0x5f, 0x31,
  0x2f, 0x42, 0x69, 0x61, 0x73, 0x41, 0x64, 0x64, 0x3b, 0x73, 0x65, 0x71,
  0x75, 0x65, 0x6e, 0x74, 0x69, 0x61, 0x6c, 0x2f, 0x63, 0x6f, 0x6e, 0x76,
  0x32, 0x64, 0x5f, 0x31, 0x2f, 0x43, 0x6f, 0x6e, 0x76, 0x32, 0x44, 0x3b,
  0x73, 0x65, 0x71, 0x75, 0x65, 0x6e, 0x74, 0x69, 0x61, 0x6c, 0x2f, 0x63,
  0x6f, 0x6e, 0x76, 0x32, 0x64, 0x5f, 0x31, 0x2f, 0x42, 0x69, 0x61, 0x73,
  0x41, 0x64, 0x64, 0x2f, 0x52, 0x65, 0x61, 0x64, 0x56, 0x61, 0x72, 0x69,
  0x61, 0x62, 0x6c, 0x65, 0x4f, 0x70, 0x00, 0x00, 0x04, 0x00, 0x00, 0x00,
  0x01, 0x00, 0x00, 0x00, 0x19, 0x00, 0x00, 0x00, 0x07, 0x00, 0x00, 0x00,
  0x10, 0x00, 0x00, 0x00, 0xf2, 0xf8, 0xff, 0xff, 0x00, 0x00, 0x00, 0x01,
  0x14, 0x00, 0x00, 0x00, 0x30, 0x00, 0x00, 0x00, 0x0c, 0x00, 0x00, 0x00,
  0x00, 0x00, 0x00, 0x09, 0x4c, 0x00, 0x00, 0x00, 0xdc, 0xf8, 0xff, 0xff,
  0x08, 0x00, 0x00, 0x00, 0x10, 0x00, 0x00, 0x00, 0x01, 0x00, 0x00, 0x00,
  0x80, 0xff, 0xff, 0xff, 0xff, 0xff, 0xff, 0xff, 0x01, 0x00, 0x00, 0x00,
  0xd7, 0x44, 0x1a, 0x3c, 0x20, 0x00, 0x00, 0x00, 0x73, 0x65, 0x71, 0x75,
  0x65, 0x6e, 0x74, 0x69, 0x61, 0x6c, 0x2f, 0x6d, 0x61, 0x78, 0x5f, 0x70,
  0x6f, 0x6f, 0x6c, 0x69, 0x6e, 0x67, 0x32, 0x64, 0x2f, 0x4d, 0x61, 0x78,
  0x50, 0x6f, 0x6f, 0x6c, 0x00, 0x00, 0x00, 0x00, 0x04, 0x00, 0x00, 0x00,
  0x01, 0x00, 0x00, 0x00, 0x19, 0x00, 0x00, 0x00, 0x07, 0x00, 0x00, 0x00,
  0x08, 0x00, 0x00, 0x00, 0x6a, 0xf9, 0xff, 0xff, 0x00, 0x00, 0x00, 0x01,
  0x14, 0x00, 0x00, 0x00, 0x30, 0x00, 0x00, 0x00, 0x0b, 0x00, 0x00, 0x00,
  0x00, 0x00, 0x00, 0x09, 0x9c, 0x00, 0x00, 0x00, 0x54, 0xf9, 0xff, 0xff,
  0x08, 0x00, 0x00, 0x00, 0x10, 0x00, 0x00, 0x00, 0x01, 0x00, 0x00, 0x00,
  0x80, 0xff, 0xff, 0xff, 0xff, 0xff, 0xff, 0xff, 0x01, 0x00, 0x00, 0x00,
  0xd7, 0x44, 0x1a, 0x3c, 0x72, 0x00, 0x00, 0x00, 0x73, 0x65, 0x71, 0x75,
  0x65, 0x6e, 0x74, 0x69, 0x61, 0x6c, 0x2f, 0x63, 0x6f, 0x6e, 0x76, 0x32,
  0x64, 0x2f, 0x52, 0x65, 0x6c, 0x75, 0x3b, 0x73, 0x65, 0x71, 0x75, 0x65,
  0x6e, 0x74, 0x69, 0x61, 0x6c, 0x2f, 0x63, 0x6f, 0x6e, 0x76, 0x32, 0x64,
  0x2f, 0x42, 0x69, 0x61, 0x73, 0x41, 0x64, 0x64, 0x3b, 0x73, 0x65, 0x71,
  0x75, 0x65, 0x6e, 0x74, 0x69, 0x61, 0x6c, 0x2f, 0x63, 0x6f, 0x6e, 0x76,
  0x32, 0x64, 0x2f, 0x43, 0x6f, 0x6e, 0x76, 0x32, 0x44, 0x3b, 0x73, 0x65,
  0x71, 0x75, 0x65, 0x6e, 0x74, 0x69, 0x61, 0x6c, 0x2f, 0x63, 0x6f, 0x6e,
  0x76, 0x32, 0x64, 0x2f, 0x42, 0x69, 0x61, 0x73, 0x41, 0x64, 0x64, 0x2f,
  0x52, 0x65, 0x61, 0x64, 0x56, 0x61, 0x72, 0x69, 0x61, 0x62, 0x6c, 0x65,
  0x4f, 0x70, 0x00, 0x00, 0x04, 0x00, 0x00, 0x00, 0x01, 0x00, 0x00, 0x00,
  0x31, 0x00, 0x00, 0x00, 0x0d, 0x00, 0x00, 0x00, 0x08, 0x00, 0x00, 0x00,
  0x32, 0xfa, 0xff, 0xff, 0x00, 0x00, 0x00, 0x01, 0x14, 0x00, 0x00, 0x00,
  0x30, 0x00, 0x00, 0x00, 0x0a, 0x00, 0x00, 0x00, 0x00, 0x00, 0x00, 0x09,
  0x44, 0x00, 0x00, 0x00, 0x1c, 0xfa, 0xff, 0xff, 0x08, 0x00, 0x00, 0x00,
  0x10, 0x00, 0x00, 0x00, 0x01, 0x00, 0x00, 0x00, 0xf6, 0xff, 0xff, 0xff,
  0xff, 0xff, 0xff, 0xff, 0x01, 0x00, 0x00, 0x00, 0x50, 0x49, 0x30, 0x3d,
  0x1a, 0x00, 0x00, 0x00, 0x73, 0x65, 0x71, 0x75, 0x65, 0x6e, 0x74, 0x69,
  0x61, 0x6c, 0x2f, 0x72, 0x65, 0x73, 0x68, 0x61, 0x70, 0x65, 0x2f, 0x52,
  0x65, 0x73, 0x68, 0x61, 0x70, 0x65, 0x00, 0x00, 0x04, 0x00, 0x00, 0x00,
  0x01, 0x00, 0x00, 0x00, 0x31, 0x00, 0x00, 0x00, 0x0d, 0x00, 0x00, 0x00,
  0x01, 0x00, 0x00, 0x00, 0xa2, 0xfa, 0xff, 0xff, 0x00, 0x00, 0x00, 0x01,
  0x14, 0x00, 0x00, 0x00, 0x88, 0x00, 0x00, 0x00, 0x09, 0x00, 0x00, 0x00,
  0x00, 0x00, 0x00, 0x09, 0x9c, 0x00, 0x00, 0x00, 0x8c, 0xfa, 0xff, 0xff,
  0x08, 0x00, 0x00, 0x00, 0x4c, 0x00, 0x00, 0x00, 0x08, 0x00, 0x00, 0x00,
  0x00, 0x00, 0x00, 0x00, 0x00, 0x00, 0x00, 0x00, 0x00, 0x00, 0x00, 0x00,
  0x00, 0x00, 0x00, 0x00, 0x00, 0x00, 0x00, 0x00, 0x00, 0x00, 0x00, 0x00,
  0x00, 0x00, 0x00, 0x00, 0x00, 0x00, 0x00, 0x00, 0x00, 0x00, 0x00, 0x00,
  0x00, 0x00, 0x00, 0x00, 0x00, 0x00, 0x00, 0x00, 0x00, 0x00, 0x00, 0x00,
  0x00, 0x00, 0x00, 0x00, 0x00, 0x00, 0x00, 0x00, 0x00, 0x00, 0x00, 0x00,
  0x00, 0x00, 0x00, 0x00, 0x00, 0x00, 0x00, 0x00, 0x08, 0x00, 0x00, 0x00,
  0xd8, 0x52, 0xe9, 0x3a, 0x11, 0xa7, 0x3f, 0x3b, 0xc2, 0x66, 0xea, 0x3a,
  0xc8, 0x68, 0x1d, 0x3b, 0x36, 0x72, 0x01, 0x3b, 0xf7, 0xb9, 0x17, 0x3b,
  0x7b, 0x56, 0xc2, 0x3a, 0x4c, 0x2b, 0xb4, 0x3a, 0x18, 0x00, 0x00, 0x00,
  0x73, 0x65, 0x71, 0x75, 0x65, 0x6e, 0x74, 0x69, 0x61, 0x6c, 0x2f, 0x63,
  0x6f, 0x6e, 0x76, 0x32, 0x64, 0x2f, 0x43, 0x6f, 0x6e, 0x76, 0x32, 0x44,
  0x00, 0x00, 0x00, 0x00, 0x04, 0x00, 0x00, 0x00, 0x08, 0x00, 0x00, 0x00,
  0x03, 0x00, 0x00, 0x00, 0x03, 0x00, 0x00, 0x00, 0x01, 0x00, 0x00, 0x00,
  0x6a, 0xfb, 0xff, 0xff, 0x00, 0x00, 0x00, 0x01, 0x14, 0x00, 0x00, 0x00,
  0x84, 0x00, 0x00, 0x00, 0x08, 0x00, 0x00, 0x00, 0x00, 0x00, 0x00, 0x02,
  0xa8, 0x00, 0x00, 0x00, 0x54, 0xfb, 0xff, 0xff, 0x08, 0x00, 0x00, 0x00,
  0x48, 0x00, 0x00, 0x00, 0x08, 0x00, 0x00, 0x00, 0x00, 0x00, 0x00, 0x00,
  0x00, 0x00, 0x00, 0x00, 0x00, 0x00, 0x00, 0x00, 0x00, 0x00, 0x00, 0x00,
  0x00, 0x00, 0x00, 0x00, 0x00, 0x00, 0x00, 0x00, 0x00, 0x00, 0x00, 0x00,
  0x00, 0x00, 0x00, 0x00, 0x00, 0x00, 0x00, 0x00, 0x00, 0x00, 0x00, 0x00,
  0x00, 0x00, 0x00, 0x00, 0x00, 0x00, 0x00, 0x00, 0x00, 0x00, 0x00, 0x00,
  0x00, 0x00, 0x00, 0x00, 0x00, 0x00, 0x00, 0x00, 0x00, 0x00, 0x00, 0x00,
  0x08, 0x00, 0x00, 0x00, 0xc6, 0xab, 0xa0, 0x38, 0xbe, 0xf9, 0x03, 0x39,
  0xc6, 0x69, 0xa1, 0x38, 0x3b, 0xca, 0xd8, 0x38, 0x2e, 0x47, 0xb2, 0x38,
  0x9b, 0xf6, 0xd0, 0x38, 0x1c, 0xd3, 0x85, 0x38, 0xba, 0x22, 0x78, 0x38,
  0x28, 0x00, 0x00, 0x00, 0x73, 0x65, 0x71, 0x75, 0x65, 0x6e, 0x74, 0x69,
  0x61, 0x6c, 0x2f, 0x63, 0x6f, 0x6e, 0x76, 0x32, 0x64, 0x2f, 0x42, 0x69,
  0x61, 0x73, 0x41, 0x64, 0x64, 0x2f, 0x52, 0x65, 0x61, 0x64, 0x56, 0x61,
  0x72, 0x69, 0x61, 0x62, 0x6c, 0x65, 0x4f, 0x70, 0x00, 0x00, 0x00, 0x00,
  0x01, 0x00, 0x00, 0x00, 0x08, 0x00, 0x00, 0x00, 0x32, 0xfc, 0xff, 0xff,
  0x00, 0x00, 0x00, 0x01, 0x14, 0x00, 0x00, 0x00, 0xe8, 0x00, 0x00, 0x00,
  0x07, 0x00, 0x00, 0x00, 0x00, 0x00, 0x00, 0x09, 0xfc, 0x00, 0x00, 0x00,
  0x1c, 0xfc, 0xff, 0xff, 0x08, 0x00, 0x00, 0x00, 0x8c, 0x00, 0x00, 0x00,
  0x10, 0x00, 0x00, 0x00, 0x00, 0x00, 0x00, 0x00, 0x00, 0x00, 0x00, 0x00,
  0x00, 0x00, 0x00, 0x00, 0x00, 0x00, 0x00, 0x00, 0x00, 0x00, 0x00, 0x00,
  0x00, 0x00, 0x00, 0x00, 0x00, 0x00, 0x00, 0x00, 0x00, 0x00, 0x00, 0x00,
  0x00, 0x00, 0x00, 0x00, 0x00, 0x00, 0x00, 0x00, 0x00, 0x00, 0x00, 0x00,
  0x00, 0x00, 0x00, 0x00, 0x00, 0x00, 0x00, 0x00, 0x00, 0x00, 0x00, 0x00,
  0x00, 0x00, 0x00, 0x00, 0x00, 0x00, 0x00, 0x00, 0x00, 0x00, 0x00, 0x00,
  0x00, 0x00, 0x00, 0x00, 0x00, 0x00, 0x00, 0x00, 0x00, 0x00, 0x00, 0x00,
  0x00, 0x00, 0x00, 0x00, 0x00, 0x00, 0x00, 0x00, 0x00, 0x00, 0x00, 0x00,
  0x00, 0x00, 0x00, 0x00, 0x00, 0x00, 0x00, 0x00, 0x00, 0x00, 0x00, 0x00,
  0x00, 0x00, 0x00, 0x00, 0x00, 0x00, 0x00, 0x00, 0x00, 0x00, 0x00, 0x00,
  0x00, 0x00, 0x00, 0x00, 0x00, 0x00, 0x00, 0x00, 0x00, 0x00, 0x00, 0x00,
  0x00, 0x00, 0x00, 0x00, 0x10, 0x00, 0x00, 0x00, 0xf3, 0xba, 0x0b, 0x3b,
  0xe0, 0xd4, 0x9c, 0x3b, 0x42, 0xe9, 0x8d, 0x3b, 0xe0, 0x02, 0xbd, 0x3b,
  0x44, 0xb6, 0xae, 0x3b, 0x38, 0x91, 0x52, 0x3b, 0xc2, 0x80, 0x9f, 0x3b,
  0x9c, 0xef, 0xc9, 0x3b, 0x62, 0xa2, 0x8c, 0x3b, 0x32, 0x56, 0xc4, 0x3b,
  0xb1, 0x82, 0xbb, 0x3b, 0x87, 0x2c, 0x4c, 0x3b, 0xf5, 0xd0, 0x96, 0x3b,
  0xbd, 0x97, 0xb1, 0x3b, 0x6d, 0x2f, 0xaf, 0x3b, 0x75, 0x96, 0xa4, 0x3b,
  0x1a, 0x00, 0x00, 0x00, 0x73, 0x65, 0x71, 0x75, 0x65, 0x6e, 0x74, 0x69,
  0x61, 0x6c, 0x2f, 0x63, 0x6f, 0x6e, 0x76, 0x32, 0x64, 0x5f, 0x31, 0x2f,
  0x43, 0x6f, 0x6e, 0x76, 0x32, 0x44, 0x00, 0x00, 0x04, 0x00, 0x00, 0x00,
  0x10, 0x00, 0x00, 0x00, 0x03, 0x00, 0x00, 0x00, 0x03, 0x00, 0x00, 0x00,
  0x08, 0x00, 0x00, 0x00, 0x5a, 0xfd, 0xff, 0xff, 0x00, 0x00, 0x00, 0x01,
  0x14, 0x00, 0x00, 0x00, 0xe4, 0x00, 0x00, 0x00, 0x06, 0x00, 0x00, 0x00,
  0x00, 0x00, 0x00, 0x02, 0x08, 0x01, 0x00, 0x00, 0x44, 0xfd, 0xff, 0xff,
  0x08, 0x00, 0x00, 0x00, 0x88, 0x00, 0x00, 0x00, 0x10, 0x00, 0x00, 0x00,
  0x00, 0x00, 0x00, 0x00, 0x00, 0x00, 0x00, 0x00, 0x00, 0x00, 0x00, 0x00,
  0x00, 0x00, 0x00, 0x00, 0x00, 0x00, 0x00, 0x00, 0x00, 0x00, 0x00, 0x00,
  0x00, 0x00, 0x00, 0x00, 0x00, 0x00, 0x00, 0x00, 0x00, 0x00, 0x00, 0x00,
  0x00, 0x00, 0x00, 0x00, 0x00, 0x00, 0x00, 0x00, 0x00, 0x00, 0x00, 0x00,
  0x00, 0x00, 0x00, 0x00, 0x00, 0x00, 0x00, 0x00, 0x00, 0x00, 0x00, 0x00,
  0x00, 0x00, 0x00, 0x00, 0x00, 0x00, 0x00, 0x00, 0x00, 0x00, 0x00, 0x00,
  0x00, 0x00, 0x00, 0x00, 0x00, 0x00, 0x00, 0x00, 0x00, 0x00, 0x00, 0x00,
  0x00, 0x00, 0x00, 0x00, 0x00, 0x00, 0x00, 0x00, 0x00, 0x00, 0x00, 0x00,
  0x00, 0x00, 0x00, 0x00, 0x00, 0x00, 0x00, 0x00, 0x00, 0x00, 0x00, 0x00,
  0x00, 0x00, 0x00, 0x00, 0x00, 0x00, 0x00, 0x00, 0x00, 0x00, 0x00, 0x00,
  0x00, 0x00, 0x00, 0x00, 0x00, 0x00, 0x00, 0x00, 0x10, 0x00, 0x00, 0x00,
  0x12, 0x68, 0xa8, 0x37, 0x76, 0x04, 0x3d, 0x38, 0xf6, 0x08, 0x2b, 0x38,
  0x1d, 0xcd, 0x63, 0x38, 0x40, 0x91, 0x52, 0x38, 0xf6, 0xc7, 0xfd, 0x37,
  0xb2, 0x3c, 0x40, 0x38, 0xe2, 0x60, 0x73, 0x38, 0x00, 0x7f, 0x29, 0x38,
  0x4c, 0xa1, 0x6c, 0x38, 0x15, 0xfe, 0x61, 0x38, 0x61, 0x13, 0xf6, 0x37,
  0x83, 0xc4, 0x35, 0x38, 0x12, 0x0a, 0x56, 0x38, 0x47, 0x23, 0x53, 0x38,
  0x89, 0x5d, 0x46, 0x38, 0x2a, 0x00, 0x00, 0x00, 0x73, 0x65, 0x71, 0x75,
  0x65, 0x6e, 0x74, 0x69, 0x61, 0x6c, 0x2f, 0x63, 0x6f, 0x6e, 0x76, 0x32,
  0x64, 0x5f, 0x31, 0x2f, 0x42, 0x69, 0x61, 0x73, 0x41, 0x64, 0x64, 0x2f,
  0x52, 0x65, 0x61, 0x64, 0x56, 0x61, 0x72, 0x69, 0x61, 0x62, 0x6c, 0x65,
  0x4f, 0x70, 0x00, 0x00, 0x01, 0x00, 0x00, 0x00, 0x10, 0x00, 0x00, 0x00,
  0x82, 0xfe, 0xff, 0xff, 0x00, 0x00, 0x00, 0x01, 0x14, 0x00, 0x00, 0x00,
  0x30, 0x00, 0x00, 0x00, 0x05, 0x00, 0x00, 0x00, 0x00, 0x00, 0x00, 0x09,
  0x44, 0x00, 0x00, 0x00, 0x6c, 0xfe, 0xff, 0xff, 0x08, 0x00, 0x00, 0x00,
  0x10, 0x00, 0x00, 0x00, 0x01, 0x00, 0x00, 0x00, 0x00, 0x00, 0x00, 0x00,
  0x00, 0x00, 0x00, 0x00, 0x01, 0x00, 0x00, 0x00, 0x08, 0x8b, 0xdf, 0x3b,
  0x18, 0x00, 0x00, 0x00, 0x73, 0x65, 0x71, 0x75, 0x65, 0x6e, 0x74, 0x69,
  0x61, 0x6c, 0x2f, 0x79, 0x5f, 0x70, 0x72, 0x65, 0x64, 0x2f, 0x4d, 0x61,
  0x74, 0x4d, 0x75, 0x6c, 0x00, 0x00, 0x00, 0x00, 0x02, 0x00, 0x00, 0x00,
  0x03, 0x00, 0x00, 0x00, 0x40, 0x03, 0x00, 0x00, 0xea, 0xfe, 0xff, 0xff,
  0x00, 0x00, 0x00, 0x01, 0x14, 0x00, 0x00, 0x00, 0x34, 0x00, 0x00, 0x00,
  0x04, 0x00, 0x00, 0x00, 0x00, 0x00, 0x00, 0x02, 0x58, 0x00, 0x00, 0x00,
  0xd4, 0xfe, 0xff, 0xff, 0x08, 0x00, 0x00, 0x00, 0x14, 0x00, 0x00, 0x00,
  0x01, 0x00, 0x00, 0x00, 0x00, 0x00, 0x00, 0x00, 0x00, 0x00, 0x00, 0x00,
  0x00, 0x00, 0x00, 0x00, 0x01, 0x00, 0x00, 0x00, 0x8b, 0xd5, 0x77, 0x38,
  0x28, 0x00, 0x00, 0x00, 0x73, 0x65, 0x71, 0x75, 0x65, 0x6e, 0x74, 0x69,
  0x61, 0x6c, 0x2f, 0x79, 0x5f, 0x70, 0x72, 0x65, 0x64, 0x2f, 0x42, 0x69,
  0x61, 0x73, 0x41, 0x64, 0x64, 0x2f, 0x52, 0x65, 0x61, 0x64, 0x56, 0x61,
  0x72, 0x69, 0x61, 0x62, 0x6c, 0x65, 0x4f, 0x70, 0x00, 0x00, 0x00, 0x00,
  0x01, 0x00, 0x00, 0x00, 0x03, 0x00, 0x00, 0x00, 0x62, 0xff, 0xff, 0xff,
  0x00, 0x00, 0x00, 0x01, 0x14, 0x00, 0x00, 0x00, 0x14, 0x00, 0x00, 0x00,
  0x03, 0x00, 0x00, 0x00, 0x00, 0x00, 0x00, 0x02, 0x28, 0x00, 0x00, 0x00,
  0xb8, 0xff, 0xff, 0xff, 0x18, 0x00, 0x00, 0x00, 0x73, 0x65, 0x71, 0x75,
  0x65, 0x6e, 0x74, 0x69, 0x61, 0x6c, 0x2f, 0x66, 0x6c, 0x61, 0x74, 0x74,
  0x65, 0x6e, 0x2f, 0x43, 0x6f, 0x6e, 0x73, 0x74, 0x00, 0x00, 0x00, 0x00,
  0x01, 0x00, 0x00, 0x00, 0x02, 0x00, 0x00, 0x00, 0xaa, 0xff, 0xff, 0xff,
  0x00, 0x00, 0x00, 0x01, 0x18, 0x00, 0x00, 0x00, 0x18, 0x00, 0x00, 0x00,
  0x02, 0x00, 0x00, 0x00, 0x00, 0x00, 0x00, 0x02, 0x34, 0x00, 0x00, 0x00,
  0x04, 0x00, 0x04, 0x00, 0x04, 0x00, 0x00, 0x00, 0x20, 0x00, 0x00, 0x00,
  0x73, 0x65, 0x71, 0x75, 0x65, 0x6e, 0x74, 0x69, 0x61, 0x6c, 0x2f, 0x72,
  0x65, 0x73, 0x68, 0x61, 0x70, 0x65, 0x2f, 0x52, 0x65, 0x73, 0x68, 0x61,
  0x70, 0x65, 0x2f, 0x73, 0x68, 0x61, 0x70, 0x65, 0x00, 0x00, 0x00, 0x00,
  0x01, 0x00, 0x00, 0x00, 0x04, 0x00, 0x00, 0x00, 0x00, 0x00, 0x16, 0x00,
  0x1c, 0x00, 0x18, 0x00, 0x17, 0x00, 0x10, 0x00, 0x0c, 0x00, 0x08, 0x00,
  0x00, 0x00, 0x00, 0x00, 0x00, 0x00, 0x07, 0x00, 0x16, 0x00, 0x00, 0x00,
  0x00, 0x00, 0x00, 0x01, 0x20, 0x00, 0x00, 0x00, 0x3c, 0x00, 0x00, 0x00,
  0x01, 0x00, 0x00, 0x00, 0x00, 0x00, 0x00, 0x09, 0x48, 0x00, 0x00, 0x00,
  0x0c, 0x00, 0x0c, 0x00, 0x00, 0x00, 0x00, 0x00, 0x08, 0x00, 0x04, 0x00,
  0x0c, 0x00, 0x00, 0x00, 0x08, 0x00, 0x00, 0x00, 0x10, 0x00, 0x00, 0x00,
  0x01, 0x00, 0x00, 0x00, 0xf6, 0xff, 0xff, 0xff, 0xff, 0xff, 0xff, 0xff,
  0x01, 0x00, 0x00, 0x00, 0x50, 0x49, 0x30, 0x3d, 0x13, 0x00, 0x00, 0x00,
  0x73, 0x65, 0x72, 0x76, 0x69, 0x6e, 0x67, 0x5f, 0x64, 0x65, 0x66, 0x61,
  0x75, 0x6c, 0x74, 0x5f, 0x78, 0x3a, 0x30, 0x00, 0x02, 0x00, 0x00, 0x00,
  0x01, 0x00, 0x00, 0x00, 0x7d, 0x02, 0x00, 0x00, 0x05, 0x00, 0x00, 0x00,
  0x6c, 0x00, 0x00, 0x00, 0x4c, 0x00, 0x00, 0x00, 0x2c, 0x00, 0x00, 0x00,
  0x18, 0x00, 0x00, 0x00, 0x04, 0x00, 0x00, 0x00, 0xd0, 0xff, 0xff, 0xff,
  0x19, 0x00, 0x00, 0x00, 0x02, 0x00, 0x00, 0x00, 0x00, 0x00, 0x00, 0x19,
  0xe0, 0xff, 0xff, 0xff, 0x09, 0x00, 0x00, 0x00, 0x04, 0x00, 0x00, 0x00,
  0x00, 0x00, 0x00, 0x09, 0xf0, 0xff, 0xff, 0xff, 0x11, 0x00, 0x00, 0x00,
  0x02, 0x00, 0x00, 0x00, 0x00, 0x00, 0x00, 0x11, 0x0c, 0x00, 0x10, 0x00,
  0x0f, 0x00, 0x00, 0x00, 0x08, 0x00, 0x04, 0x00, 0x0c, 0x00, 0x00, 0x00,
  0x03, 0x00, 0x00, 0x00, 0x03, 0x00, 0x00, 0x00, 0x00, 0x00, 0x00, 0x03,
  0x0c, 0x00, 0x0c, 0x00, 0x0b, 0x00, 0x00, 0x00, 0x00, 0x00, 0x04, 0x00,
  0x0c, 0x00, 0x00, 0x00, 0x16, 0x00, 0x00, 0x00, 0x00, 0x00, 0x00, 0x16
};
unsigned int tflite_learn_5_len = 7872;
#endif // _EI_CLASSIFIER_TFLITE_LEARN_5_H_
